{
  "version": "1.0",
  "truncation": null,
  "padding": null,
  "added_tokens": [
    {
      "id": 0,
      "content": "[PAD]",
      "single_word": false,
      "lstrip": false,
      "rstrip": false,
      "normalized": false,
      "special": true
    },
    {
      "id": 1,
      "content": "[BOS]",
      "single_word": false,
      "lstrip": false,
      "rstrip": false,
      "normalized": false,
      "special": true
    },
    {
      "id": 2,
      "content": "[EOS]",
      "single_word": false,
      "lstrip": false,
      "rstrip": false,
      "normalized": false,
      "special": true
    },
    {
      "id": 3,
      "content": "[UNK]",
      "single_word": false,
      "lstrip": false,
      "rstrip": false,
      "normalized": false,
      "special": true
    }
  ],
  "normalizer": null,
  "pre_tokenizer": {
    "type": "ByteLevel",
    "add_prefix_space": true,
    "trim_offsets": true,
    "use_regex": true
  },
  "post_processor": null,
  "decoder": null,
  "model": {
    "type": "BPE",
    "dropout": null,
    "unk_token": "[UNK]",
    "continuing_subword_prefix": null,
    "end_of_word_suffix": null,
    "fuse_unk": false,
    "byte_fallback": false,
    "ignore_merges": false,
    "vocab": {
      "[PAD]": 0,
      "[BOS]": 1,
      "[EOS]": 2,
      "[UNK]": 3,
      "!": 4,
      "\"": 5,
      "#": 6,
      "$": 7,
      "%": 8,
      "&": 9,
      "'": 10,
      "(": 11,
      ")": 12,
      "*": 13,
      "+": 14,
      ",": 15,
      "-": 16,
      ".": 17,
      "/": 18,
      "0": 19,
      "1": 20,
      "2": 21,
      "3": 22,
      "4": 23,
      "5": 24,
      "6": 25,
      "7": 26,
      "8": 27,
      "9": 28,
      ":": 29,
      ";": 30,
      "=": 31,
      ">": 32,
      "?": 33,
      "@": 34,
      "A": 35,
      "B": 36,
      "C": 37,
      "D": 38,
      "E": 39,
      "F": 40,
      "G": 41,
      "H": 42,
      "I": 43,
      "J": 44,
      "K": 45,
      "L": 46,
      "M": 47,
      "N": 48,
      "O": 49,
      "P": 50,
      "Q": 51,
      "R": 52,
      "S": 53,
      "T": 54,
      "U": 55,
      "V": 56,
      "W": 57,
      "X": 58,
      "Y": 59,
      "Z": 60,
      "[": 61,
      "\\": 62,
      "]": 63,
      "_": 64,
      "`": 65,
      "a": 66,
      "b": 67,
      "c": 68,
      "d": 69,
      "e": 70,
      "f": 71,
      "g": 72,
      "h": 73,
      "i": 74,
      "j": 75,
      "k": 76,
      "l": 77,
      "m": 78,
      "n": 79,
      "o": 80,
      "p": 81,
      "q": 82,
      "r": 83,
      "s": 84,
      "t": 85,
      "u": 86,
      "v": 87,
      "w": 88,
      "x": 89,
      "y": 90,
      "z": 91,
      "Ċ": 92,
      "Ġ": 93,
      "Ġa": 94,
      "in": 95,
      "Ġt": 96,
      "Ġo": 97,
      "Ġs": 98,
      "ing": 99,
      "it": 100,
      "Ġb": 101,
      "ĠA": 102,
      "Ġw": 103,
      "he": 104,
      "Ġp": 105,
      "an": 106,
      "re": 107,
      "Ġc": 108,
      "le": 109,
      "er": 110,
      "Ġon": 111,
      "at": 112,
      "Ġof": 113,
      "Ġin": 114,
      "ar": 115,
      "ro": 116,
      "Ġthe": 117,
      "Ġan": 118,
      "Ġf": 119,
      "is": 120,
      "Ġm": 121,
      "Ġwit": 122,
      "Ġwith": 123,
      "Ġh": 124,
      "Ġand": 125,
      "Ġd": 126,
      "Ġg": 127,
      "al": 128,
      "en": 129,
      "Ġto": 130,
      "Ġl": 131,
      "Ġst": 132,
      "om": 133,
      "ra": 134,
      "ding": 135,
      "es": 136,
      "on": 137,
      "ck": 138,
      "ed": 139,
      "ow": 140,
      "Ġis": 141,
      "or": 142,
      "et": 143,
      "un": 144,
      "la": 145,
      "ĠT": 146,
      "ir": 147,
      "Ġn": 148,
      "Ġman": 149,
      "as": 150,
      "ting": 151,
      "op": 152,
      "Ġsit": 153,
      "all": 154,
      "ch": 155,
      "up": 156,
      "ri": 157,
      "oo": 158,
      "Ġne": 159,
      "il": 160,
      "el": 161,
      "ot": 162,
      "ut": 163,
      "Ġwh": 164,
      "id": 165,
      "ur": 166,
      "Ġstan": 167,
      "Ġsitting": 168,
      "ol": 169,
      "ge": 170,
      "ers": 171,
      "Ġare": 172,
      "Ġth": 173,
      "wo": 174,
      "ic": 175,
      "ard": 176,
      "us": 177,
      "ab": 178,
      "ite": 179,
      "Ġat": 180,
      "king": 181,
      "ig": 182,
      "her": 183,
      "Ġco": 184,
      "ss": 185,
      "Ġbe": 186,
      "Ġsk": 187,
      "Ġe": 188,
      "ying": 189,
      "Ġre": 190,
      "Ġstanding": 191,
      "eop": 192,
      "eople": 193,
      "Ġtra": 194,
      "eb": 195,
      "ide": 196,
      "Ġro": 197,
      "oard": 198,
      "ad": 199,
      "xt": 200,
      "able": 201,
      "Ġwom": 202,
      "Ġnext": 203,
      "Ġk": 204,
      "ve": 205,
      "Ġpeople": 206,
      "Ġdo": 207,
      "Ġwhite": 208,
      "ver": 209,
      "lo": 210,
      "Ġpla": 211,
      "ile": 212,
      "ff": 213,
      "ĠThe": 214,
      "Ġit": 215,
      "Ġwoman": 216,
      "Ġhol": 217,
      "Ġtable": 218,
      "und": 219,
      "Ġpl": 220,
      "Ġstre": 221,
      "ome": 222,
      "Ġstreet": 223,
      "Ġfro": 224,
      "ood": 225,
      "Ġfi": 226,
      "ĠTwo": 227,
      "Ġbo": 228,
      "Ġholding": 229,
      "Ġri": 230,
      "ce": 231,
      "Ġthat": 232,
      "Ġpar": 233,
      "Ġsh": 234,
      "Ġla": 235,
      "own": 236,
      "Ġtop": 237,
      "Ġgro": 238,
      "Ġy": 239,
      "Ġgra": 240,
      "ate": 241,
      "erson": 242,
      "nt": 243,
      "Ġsm": 244,
      "Ġperson": 245,
      "Ġch": 246,
      "Ġbat": 247,
      "arge": 248,
      "oun": 249,
      "ant": 250,
      "Ġdown": 251,
      "Ġlarge": 252,
      "Ġsome": 253,
      "um": 254,
      "Ġwat": 255,
      "and": 256,
      "Ġcat": 257,
      "am": 258,
      "che": 259,
      "Ġv": 260,
      "Ġup": 261,
      "Ġpi": 262,
      "Ġclo": 263,
      "ion": 264,
      "eld": 265,
      "Ġfl": 266,
      "ach": 267,
      "Ġsn": 268,
      "ĠS": 269,
      "ul": 270,
      "Ġout": 271,
      "Ġfield": 272,
      "Ġgroup": 273,
      "Ġdog": 274,
      "Ġnear": 275,
      "ke": 276,
      "Ġcar": 277,
      "se": 278,
      "Ġsnow": 279,
      "Ġten": 280,
      "nis": 281,
      "ign": 282,
      "Ġtwo": 283,
      "Ġtrain": 284,
      "lack": 285,
      "Ġfront": 286,
      "Ġhis": 287,
      "Ġwal": 288,
      "ack": 289,
      "Ġpark": 290,
      "Ġtennis": 291,
      "ree": 292,
      "Ġsmall": 293,
      "Ġra": 294,
      "ug": 295,
      "Ġbus": 296,
      "Ġsur": 297,
      "Ġbas": 298,
      "Ġsign": 299,
      "st": 300,
      "ht": 301,
      "room": 302,
      "Ġroom": 303,
      "Ġblack": 304,
      "row": 305,
      "ure": 306,
      "Ġplate": 307,
      "Ġriding": 308,
      "ay": 309,
      "ind": 310,
      "ell": 311,
      "oung": 312,
      "Ġgrass": 313,
      "Ġside": 314,
      "Ġbl": 315,
      "Ġkit": 316,
      "ue": 317,
      "Ġbu": 318,
      "Ġwater": 319,
      "Ġby": 320,
      "Ġair": 321,
      "Ġph": 322,
      "im": 323,
      "Ġred": 324,
      "round": 325,
      "one": 326,
      "Ġloo": 327,
      "ain": 328,
      "ving": 329,
      "Ġsurf": 330,
      "Ġyoung": 331,
      "board": 332,
      "Ġbuil": 333,
      "ru": 334,
      "ph": 335,
      "eball": 336,
      "ffe": 337,
      "side": 338,
      "Ġbed": 339,
      "Ġbath": 340,
      "Ġbuilding": 341,
      "red": 342,
      "reen": 343,
      "ink": 344,
      "air": 345,
      "ĠAn": 346,
      "Ġbaseball": 347,
      "Ġhas": 348,
      "Ġskat": 349,
      "Ġplay": 350,
      "ter": 351,
      "Ġwhile": 352,
      "Ġcom": 353,
      "Ġplaying": 354,
      "Ġwalking": 355,
      "pt": 356,
      "Ġskateb": 357,
      "ight": 358,
      "zz": 359,
      "Ġbathroom": 360,
      "yc": 361,
      "ds": 362,
      "Ġfor": 363,
      "Ġj": 364,
      "Ġfood": 365,
      "Ġgi": 366,
      "Ġher": 367,
      "ct": 368,
      "Ġblue": 369,
      "Ġhor": 370,
      "Ġot": 371,
      "chen": 372,
      "Ġpizz": 373,
      "Ġpo": 374,
      "aring": 375,
      "Ġother": 376,
      "ycle": 377,
      "Ġkitchen": 378,
      "Ġback": 379,
      "age": 380,
      "Ġwood": 381,
      "Ġskateboard": 382,
      "umb": 383,
      "Ġgreen": 384,
      "Ġmot": 385,
      "irt": 386,
      "ep": 387,
      "Ġele": 388,
      "ie": 389,
      "Ġparked": 390,
      "Ġpizza": 391,
      "ĠP": 392,
      "Ġli": 393,
      "Ġboy": 394,
      "Ġgira": 395,
      "Ġse": 396,
      "Ġball": 397,
      "ugh": 398,
      "ran": 399,
      "Ġmotor": 400,
      "Ġlooking": 401,
      "Ġski": 402,
      "tle": 403,
      "Ġover": 404,
      "Ġle": 405,
      "Ġhe": 406,
      "ity": 407,
      "get": 408,
      "ture": 409,
      "Ġbeach": 410,
      "Ġeat": 411,
      "irl": 412,
      "ilet": 413,
      "Ġben": 414,
      "Ġwe": 415,
      "uple": 416,
      "Ġtoilet": 417,
      "phant": 418,
      "Ġclock": 419,
      "Ġz": 420,
      "Ġbear": 421,
      "Ġca": 422,
      "Ġcouple": 423,
      "Ġwa": 424,
      "Ġdes": 425,
      "rel": 426,
      "Ġelephant": 427,
      "ent": 428,
      "Ġgirl": 429,
      "Ġcomp": 430,
      "Ġpic": 431,
      "Ġroad": 432,
      "ame": 433,
      "ild": 434,
      "Ġcon": 435,
      "ane": 436,
      "led": 437,
      "ĠTh": 438,
      "rella": 439,
      "Ġmen": 440,
      "ĠB": 441,
      "Ġumb": 442,
      "ee": 443,
      "Ġumbrella": 444,
      "Ġcity": 445,
      "Ġflying": 446,
      "Ġdis": 447,
      "cks": 448,
      "Ġpicture": 449,
      "lass": 450,
      "ris": 451,
      "Ġmotorc": 452,
      "Ġwearing": 453,
      "Ġboard": 454,
      "dy": 455,
      "Ġtow": 456,
      "ptop": 457,
      "Ġplayer": 458,
      "ub": 459,
      "Ġshe": 460,
      "Ġwind": 461,
      "ous": 462,
      "Ġlaptop": 463,
      "Ġal": 464,
      "Ġsl": 465,
      "Ġmotorcycle": 466,
      "ill": 467,
      "ine": 468,
      "Ġgame": 469,
      "veral": 470,
      "ĠM": 471,
      "ebra": 472,
      "pp": 473,
      "Ġlaying": 474,
      "ong": 475,
      "Ġfrom": 476,
      "Ġsits": 477,
      "Ġcomput": 478,
      "ld": 479,
      "Ġpas": 480,
      "tain": 481,
      "Ġchild": 482,
      "rown": 483,
      "Ġwooden": 484,
      "Ġsand": 485,
      "Ġint": 486,
      "Ġbench": 487,
      "Ġwindow": 488,
      "rough": 489,
      "Ġzebra": 490,
      "Ġsink": 491,
      "ĠW": 492,
      "Ġarea": 493,
      "ks": 494,
      "Ġglass": 495,
      "Ġr": 496,
      "Ġthrough": 497,
      "Ġtheir": 498,
      "ĠC": 499,
      "ĠF": 500,
      "Ġairp": 501,
      "Ġwall": 502,
      "Ġas": 503,
      "pen": 504,
      "risb": 505,
      "Ġchair": 506,
      "Ġtru": 507,
      "ellow": 508,
      "Ġaround": 509,
      "Ġboat": 510,
      "Ġeating": 511,
      "ase": 512,
      "Ġhorse": 513,
      "Ġcake": 514,
      "Ġbrown": 515,
      "ull": 516,
      "Ġlight": 517,
      "Ġyellow": 518,
      "Ġphone": 519,
      "Ġsc": 520,
      "Ġta": 521,
      "risbee": 522,
      "Ġhand": 523,
      "Ġcomputer": 524,
      "Ġund": 525,
      "oto": 526,
      "Ġold": 527,
      "Ġunder": 528,
      "Ġstop": 529,
      "ort": 530,
      "Ġdesk": 531,
      "ice": 532,
      "Ġbir": 533,
      "Ġde": 534,
      "Ġphoto": 535,
      "Ġgiraffe": 536,
      "uit": 537,
      "way": 538,
      "Ġoutside": 539,
      "Ġlit": 540,
      "Ġopen": 541,
      "bo": 542,
      "Ġone": 543,
      "Ġve": 544,
      "Ġtre": 545,
      "Ġsp": 546,
      "Ġtruck": 547,
      "Ġliving": 548,
      "cc": 549,
      "Ġsw": 550,
      "Ġclose": 551,
      "ross": 552,
      "Ġfire": 553,
      "Ġflo": 554,
      "Ġmo": 555,
      "ag": 556,
      "'s": 557,
      "Ġte": 558,
      "Ġsurfboard": 559,
      "ĠThere": 560,
      "vered": 561,
      "Ġban": 562,
      "Ġbow": 563,
      "Ġtrees": 564,
      "ap": 565,
      "Ġtree": 566,
      "very": 567,
      "Ġcoun": 568,
      "Ġbun": 569,
      "ger": 570,
      "Ġeach": 571,
      "les": 572,
      "ation": 573,
      "Ġcovered": 574,
      "Ġlot": 575,
      "ady": 576,
      "Ġbri": 577,
      "Ġdi": 578,
      "Ġcol": 579,
      "Ġen": 580,
      "Ġcour": 581,
      "ore": 582,
      "Ġfil": 583,
      "Ġcell": 584,
      "qu": 585,
      "ses": 586,
      "Ġcow": 587,
      "hind": 588,
      "ĠThree": 589,
      "Ġsuit": 590,
      "Ġbehind": 591,
      "Ġvery": 592,
      "Ġfilled": 593,
      "Ġbanan": 594,
      "Ġso": 595,
      "Ġbowl": 596,
      "ground": 597,
      "Ġoff": 598,
      "pla": 599,
      "Ġcourt": 600,
      "ves": 601,
      "Ġsky": 602,
      "uch": 603,
      "Ġoran": 604,
      "Ġcut": 605,
      "Ġits": 606,
      "ĠO": 607,
      "ump": 608,
      "Ġflow": 609,
      "if": 610,
      "Ġlittle": 611,
      "Ġfen": 612,
      "ets": 613,
      "Ġshow": 614,
      "Ġinto": 615,
      "eat": 616,
      "ction": 617,
      "gether": 618,
      "Ġtogether": 619,
      "ors": 620,
      "Ġkite": 621,
      "Ġabo": 622,
      "Ġrack": 623,
      "ich": 624,
      "iew": 625,
      "ts": 626,
      "ly": 627,
      "ush": 628,
      "Ġsandw": 629,
      "Ġrun": 630,
      "Ġmoun": 631,
      "ĠSe": 632,
      "Ġbackground": 633,
      "Ġbi": 634,
      "Ġairpl": 635,
      "Ġdri": 636,
      "alk": 637,
      "dle": 638,
      "Ġskis": 639,
      "ped": 640,
      "Ġshirt": 641,
      "Ġfrisbee": 642,
      "Ġinside": 643,
      "ĠSeveral": 644,
      "Ġstands": 645,
      "irro": 646,
      "Ġmirro": 647,
      "ry": 648,
      "Ġmirror": 649,
      "Ġbunch": 650,
      "Ġcouch": 651,
      "Ġview": 652,
      "Ġpre": 653,
      "Ġdispla": 654,
      "walk": 655,
      "Ġma": 656,
      "cean": 657,
      "dr": 658,
      "Ġocean": 659,
      "ĠI": 660,
      "ffic": 661,
      "Ġbig": 662,
      "ĠPeople": 663,
      "Ġgo": 664,
      "Ġsheep": 665,
      "Ġhy": 666,
      "Ġpie": 667,
      "do": 668,
      "Ġcounter": 669,
      "Ġbird": 670,
      "drant": 671,
      "Ġhot": 672,
      "Ġmany": 673,
      "ches": 674,
      "Ġapp": 675,
      "rent": 676,
      "Ġhydrant": 677,
      "Ġswing": 678,
      "Ġmid": 679,
      "Ġveget": 680,
      "orm": 681,
      "Ġfence": 682,
      "eddy": 683,
      "ĠMan": 684,
      "Ġairplane": 685,
      "other": 686,
      "Ġfloor": 687,
      "uff": 688,
      "Ġhill": 689,
      "Ġdisplay": 690,
      "Ġsandwich": 691,
      "Ġtraffic": 692,
      "ang": 693,
      "ching": 694,
      "Ġref": 695,
      "Ġanother": 696,
      "Ġche": 697,
      "Ġhead": 698,
      "Ġteddy": 699,
      "Ġdirt": 700,
      "fferent": 701,
      "ĠL": 702,
      "ment": 703,
      "sing": 704,
      "Ġvegetable": 705,
      "ted": 706,
      "Ġsidewalk": 707,
      "Ġtri": 708,
      "imal": 709,
      "ies": 710,
      "Ġorange": 711,
      "ner": 712,
      "ress": 713,
      "Ġstand": 714,
      "Ġwave": 715,
      "Ġmountain": 716,
      "Ġwomen": 717,
      "Ġanimal": 718,
      "Ġdifferent": 719,
      "iling": 720,
      "Ġplane": 721,
      "mp": 722,
      "ruit": 723,
      "Ġjump": 724,
      "Ġtower": 725,
      "ouse": 726,
      "Ġtracks": 727,
      "Ġfe": 728,
      "Ġmet": 729,
      "ook": 730,
      "Ġtall": 731,
      "ffes": 732,
      "Ġflowers": 733,
      "Ġvase": 734,
      "etting": 735,
      "Ġhit": 736,
      "Ġthere": 737,
      "Ġbab": 738,
      "Ġparking": 739,
      "Ġalong": 740,
      "ace": 741,
      "Ġracket": 742,
      "ip": 743,
      "ĠG": 744,
      "Ġfruit": 745,
      "Ġday": 746,
      "Ġground": 747,
      "Ġtie": 748,
      "Ġsa": 749,
      "Ġim": 750,
      "Ġplat": 751,
      "Ġbaby": 752,
      "ugg": 753,
      "Ġhorses": 754,
      "Ġrid": 755,
      "Ġbro": 756,
      "te": 757,
      "ren": 758,
      "Ġvegetables": 759,
      "Ġsun": 760,
      "Ġgrassy": 761,
      "vel": 762,
      "Ġgraz": 763,
      "our": 764,
      "Ġar": 765,
      "Ġthree": 766,
      "Ġbeing": 767,
      "Ġbot": 768,
      "ket": 769,
      "Ġgiraffes": 770,
      "Ġfull": 771,
      "Ġus": 772,
      "ĠTH": 773,
      "ick": 774,
      "Ġhang": 775,
      "Ġsnowboard": 776,
      "Ġcars": 777,
      "hes": 778,
      "ey": 779,
      "ari": 780,
      "Ġrest": 781,
      "uring": 782,
      "Ġslop": 783,
      "Ġstation": 784,
      "rying": 785,
      "ated": 786,
      "Ġmiddle": 787,
      "hing": 788,
      "kes": 789,
      "ven": 790,
      "ac": 791,
      "Ġstuff": 792,
      "Ġready": 793,
      "ĠSome": 794,
      "Ġcl": 795,
      "Ġdress": 796,
      "Ġelephants": 797,
      "Ġcup": 798,
      "Ġbananas": 799,
      "ave": 800,
      "Ġdr": 801,
      "Ġseveral": 802,
      "Ġimage": 803,
      "Ġun": 804,
      "urn": 805,
      "Ġzebras": 806,
      "igh": 807,
      "Ġtaking": 808,
      "Ġcam": 809,
      "ator": 810,
      "Ġhat": 811,
      "Ġbes": 812,
      "Ġthem": 813,
      "Ġgu": 814,
      "Ġbox": 815,
      "Ġpro": 816,
      "Ġcor": 817,
      "Ġbike": 818,
      "Ġdriving": 819,
      "Ġsigns": 820,
      "Ġcrow": 821,
      "Ġslope": 822,
      "oli": 823,
      "ult": 824,
      "IN": 825,
      "rol": 826,
      "ade": 827,
      "Ġac": 828,
      "Ġlo": 829,
      "Ġcross": 830,
      "ched": 831,
      "Ġpiece": 832,
      "Ġabove": 833,
      "dge": 834,
      "ler": 835,
      "Ġcrowd": 836,
      "Ġstuffed": 837,
      "Ġwine": 838,
      "ccoli": 839,
      "Ġsto": 840,
      "uggage": 841,
      "Ġacross": 842,
      "ess": 843,
      "Ġgrazing": 844,
      "Ġad": 845,
      "Ġbeside": 846,
      "Ġcont": 847,
      "Ġrefri": 848,
      "Ġprep": 849,
      "uts": 850,
      "Ġkn": 851,
      "Ġlong": 852,
      "Ġpass": 853,
      "Ġrefriger": 854,
      "Ġskiing": 855,
      "Ġluggage": 856,
      "Ġem": 857,
      "Ġsnowy": 858,
      "Ġtravel": 859,
      "ĠThis": 860,
      "Ġbroccoli": 861,
      "Ġwor": 862,
      "Ġkey": 863,
      "Ġhanging": 864,
      "ms": 865,
      "Ġcamer": 866,
      "Ġskate": 867,
      "Ġvari": 868,
      "Ġduring": 869,
      "Ġholds": 870,
      "cor": 871,
      "Ġdoor": 872,
      "Ġrefrigerator": 873,
      "iting": 874,
      "RE": 875,
      "Ġtele": 876,
      "der": 877,
      "Ġglasses": 878,
      "Ġfri": 879,
      "ii": 880,
      "Ġbag": 881,
      "ĠD": 882,
      "Ġcamera": 883,
      "ĠH": 884,
      "Ġguy": 885,
      "Ġkid": 886,
      "Ġtal": 887,
      "Ġdoing": 888,
      "Ġcows": 889,
      "ĠTHE": 890,
      "Ġcle": 891,
      "ust": 892,
      "Ġbic": 893,
      "Ġpink": 894,
      "Ġdon": 895,
      "are": 896,
      "ak": 897,
      "Ġdoub": 898,
      "Ġrem": 899,
      "ning": 900,
      "Ġpast": 901,
      "Ġbuildings": 902,
      "ese": 903,
      "Ġpole": 904,
      "Ġcolor": 905,
      "Ġherd": 906,
      "Ġkeyboard": 907,
      "Ġpap": 908,
      "Ġoven": 909,
      "Ġrac": 910,
      "pty": 911,
      "ful": 912,
      "sh": 913,
      "vis": 914,
      "Ġdecor": 915,
      "ING": 916,
      "Ġpair": 917,
      "Ġthis": 918,
      "Ġcutting": 919,
      "Ġcontrol": 920,
      "Ġper": 921,
      "Ġcorner": 922,
      "Ġdouble": 923,
      "Ġgoing": 924,
      "Ġtrack": 925,
      "Ġumbrellas": 926,
      "Ġcab": 927,
      "Ġser": 928,
      "Ġwho": 929,
      "Ġstove": 930,
      "Ġempty": 931,
      "Ġwalk": 932,
      "Ġpassen": 933,
      "Ġlooks": 934,
      "Ġwatching": 935,
      "Ġbicycle": 936,
      "Ġtrick": 937,
      "vision": 938,
      "Ġtelevision": 939,
      "rush": 940,
      "Ġhigh": 941,
      "Ġpot": 942,
      "Ġchildren": 943,
      "Ġjumping": 944,
      "form": 945,
      "Ġkites": 946,
      "Ġchairs": 947,
      "ccer": 948,
      "Ġbottle": 949,
      "Ġtalking": 950,
      "Ġcur": 951,
      "Ġbre": 952,
      "Ġmar": 953,
      "Ġag": 954,
      "Ġsoccer": 955,
      "Ġpit": 956,
      "Ġdogs": 957,
      "Ġtraveling": 958,
      "Ġme": 959,
      "Ġposing": 960,
      "ideo": 961,
      "ten": 962,
      "Ġvideo": 963,
      "Ġsmiling": 964,
      "Ġsuitc": 965,
      "Ġswinging": 966,
      "ans": 967,
      "ght": 968,
      "Ġdin": 969,
      "Ġairport": 970,
      "Ġste": 971,
      "Ġset": 972,
      "Ġtopped": 973,
      "Ġremot": 974,
      "ĠĠ": 975,
      "Ġusing": 976,
      "Ġbody": 977,
      "Ġboats": 978,
      "pe": 979,
      "Ġgetting": 980,
      "Ġcontain": 981,
      "ces": 982,
      "Ġcabin": 983,
      "ire": 984,
      "oes": 985,
      "Ġpaper": 986,
      "Ġanimals": 987,
      "Ġpain": 988,
      "Ġpat": 989,
      "Ġagain": 990,
      "ast": 991,
      "Ġagainst": 992,
      "ft": 993,
      "ping": 994,
      "Ġnight": 995,
      "oth": 996,
      "quet": 997,
      "Ġcolorful": 998,
      "Ġfore": 999,
      "Ġlady": 1000,
      "Ġthrow": 1001,
      "gs": 1002,
      "ffee": 1003,
      "Ġmon": 1004,
      "Ġbrick": 1005,
      "leep": 1006,
      "Ġhome": 1007,
      "Ġall": 1008,
      "ud": 1009,
      "Ġrail": 1010,
      "arding": 1011,
      "Ġcoffee": 1012,
      "Ġbirds": 1013,
      "Ġite": 1014,
      "Ġcarrying": 1015,
      "Ġriver": 1016,
      "Ġplates": 1017,
      "Ġjet": 1018,
      "Ġdeck": 1019,
      "Ġcheese": 1020,
      "cher": 1021,
      "Ġhim": 1022,
      "Ġbanana": 1023,
      "ĠFrisbee": 1024,
      "omet": 1025,
      "aur": 1026,
      "Ġmeat": 1027,
      "Ġbar": 1028,
      "ive": 1029,
      "Ġpull": 1030,
      "aurant": 1031,
      "Ġtray": 1032,
      "omething": 1033,
      "Ġbedroom": 1034,
      "Ġlea": 1035,
      "ian": 1036,
      "Ġhouse": 1037,
      "iss": 1038,
      "Ġrestaurant": 1039,
      "Ġwaiting": 1040,
      "Ġsomething": 1041,
      "Ġdrink": 1042,
      "ored": 1043,
      "est": 1044,
      "Ġmotorcycles": 1045,
      "ark": 1046,
      "Ġbears": 1047,
      "Ġlights": 1048,
      "uth": 1049,
      "Ġlin": 1050,
      "clo": 1051,
      "Ġremote": 1052,
      "ĠWii": 1053,
      "Ġmetal": 1054,
      "Ġlots": 1055,
      "Ġpol": 1056,
      "Ġshower": 1057,
      "Ġshel": 1058,
      "ool": 1059,
      "Ġha": 1060,
      "Ġboo": 1061,
      "Ġcan": 1062,
      "Ġplant": 1063,
      "alf": 1064,
      "Ġrunway": 1065,
      "ced": 1066,
      "Ġplayers": 1067,
      "Ġvarious": 1068,
      "Ġor": 1069,
      "Ġface": 1070,
      "Ġracquet": 1071,
      "Ġtile": 1072,
      "Ġsleep": 1073,
      "clos": 1074,
      "Ġabout": 1075,
      "Ġitems": 1076,
      "ĠR": 1077,
      "Ġramp": 1078,
      "Ġrow": 1079,
      "Ġoutdo": 1080,
      "Ġenclos": 1081,
      "erse": 1082,
      "Ġclou": 1083,
      "Ġrunning": 1084,
      "Ġtoy": 1085,
      "Ġres": 1086,
      "ases": 1087,
      "ars": 1088,
      "ial": 1089,
      "Ġdough": 1090,
      "Ġmic": 1091,
      "Ġpile": 1092,
      "Ġcarro": 1093,
      "Ġbook": 1094,
      "gra": 1095,
      "oc": 1096,
      "Ġatt": 1097,
      "Ġline": 1098,
      "Ġstore": 1099,
      "Ġinterse": 1100,
      "ty": 1101,
      "Ġbusy": 1102,
      "Ġskateboarder": 1103,
      "Ġskier": 1104,
      "Ġmouth": 1105,
      "Ġrain": 1106,
      "Ġscreen": 1107,
      "Ġhands": 1108,
      "Ġhel": 1109,
      "Ġintersection": 1110,
      "Ġlying": 1111,
      "Ġpur": 1112,
      "Ġpassenger": 1113,
      "arm": 1114,
      "Ġtoward": 1115,
      "Ġdressed": 1116,
      "Ġce": 1117,
      "Ġslic": 1118,
      "Ġsurfer": 1119,
      "Ġmonit": 1120,
      "ĠN": 1121,
      "IT": 1122,
      "Ġdoughn": 1123,
      "ooking": 1124,
      "Ġseat": 1125,
      "Ġnumb": 1126,
      "ĠFour": 1127,
      "Ġsil": 1128,
      "Ġsuitcase": 1129,
      "Ġsurfing": 1130,
      "we": 1131,
      "Ġlike": 1132,
      "ĠIS": 1133,
      "Ġwhe": 1134,
      "ĠV": 1135,
      "Ġrock": 1136,
      "Ġphotogra": 1137,
      "Ġshown": 1138,
      "ple": 1139,
      "ife": 1140,
      "Ġtub": 1141,
      "raw": 1142,
      "Ġhalf": 1143,
      "Ġpan": 1144,
      "Ġpreparing": 1145,
      "ges": 1146,
      "ones": 1147,
      "Ġslice": 1148,
      "Ġrides": 1149,
      "Ġbrush": 1150,
      "hic": 1151,
      "uce": 1152,
      "Ġgre": 1153,
      "Ġmale": 1154,
      "art": 1155,
      "Ġdecker": 1156,
      "Ġmade": 1157,
      "Ġjack": 1158,
      "Ġpulling": 1159,
      "issors": 1160,
      "Ġlook": 1161,
      "Ġdark": 1162,
      "cl": 1163,
      "ale": 1164,
      "Ġgray": 1165,
      "Ġsurround": 1166,
      "to": 1167,
      "Ġty": 1168,
      "phone": 1169,
      "Ġbatter": 1170,
      "Ġsleeping": 1171,
      "ading": 1172,
      "Ġmat": 1173,
      "Ġbridge": 1174,
      "Ġno": 1175,
      "Ġenclosure": 1176,
      "ny": 1177,
      "Ġnumber": 1178,
      "Ġzoo": 1179,
      "iz": 1180,
      "Ġscissors": 1181,
      "Ġsilver": 1182,
      "Ġfour": 1183,
      "ating": 1184,
      "ĠE": 1185,
      "Ġmicrow": 1186,
      "Ġvehic": 1187,
      "Ġtooth": 1188,
      "Ġcontroller": 1189,
      "Ġbet": 1190,
      "ĠSt": 1191,
      "Ġpost": 1192,
      "Ġknife": 1193,
      "Ġhair": 1194,
      "ll": 1195,
      "ather": 1196,
      "ond": 1197,
      "ĠY": 1198,
      "Ġsurrounded": 1199,
      "ween": 1200,
      "Ġway": 1201,
      "AN": 1202,
      "Ġforest": 1203,
      "Ġbetween": 1204,
      "Ġdonuts": 1205,
      "aning": 1206,
      "Ġjacket": 1207,
      "Ġmicrowave": 1208,
      "ĠON": 1209,
      "Ġshowing": 1210,
      "ĠMany": 1211,
      "ron": 1212,
      "gg": 1213,
      "Ġcolored": 1214,
      "AT": 1215,
      "Ġpill": 1216,
      "Ġmeal": 1217,
      "Ġphotograph": 1218,
      "eath": 1219,
      "Ġdecorated": 1220,
      "Ġbread": 1221,
      "Ġlake": 1222,
      "iform": 1223,
      "lic": 1224,
      "Ġsal": 1225,
      "ash": 1226,
      "Ġcabinets": 1227,
      "Ġlined": 1228,
      "Ġfew": 1229,
      "Ġwalks": 1230,
      "Ġcount": 1231,
      "Ġkids": 1232,
      "Ġcarrots": 1233,
      "ved": 1234,
      "Ġuniform": 1235,
      "ne": 1236,
      "ĠWom": 1237,
      "anes": 1238,
      "Ġblan": 1239,
      "elf": 1240,
      "ached": 1241,
      "pes": 1242,
      "Ġmouse": 1243,
      "Ġam": 1244,
      "Ġbright": 1245,
      "iture": 1246,
      "ime": 1247,
      "Ġscen": 1248,
      "Ġfurn": 1249,
      "Ġ\"": 1250,
      "Ġcand": 1251,
      "ries": 1252,
      "Ġfurniture": 1253,
      "Ġbran": 1254,
      "Ġbuses": 1255,
      "Ġdock": 1256,
      "Ġstick": 1257,
      "Ġbooks": 1258,
      "Ġstri": 1259,
      "Ġpurple": 1260,
      "Ġboys": 1261,
      "Ġolder": 1262,
      "ows": 1263,
      "ser": 1264,
      "ĠCh": 1265,
      "Ġhave": 1266,
      "Ġdish": 1267,
      "Ġoutdoor": 1268,
      "Ġpick": 1269,
      "ĠTV": 1270,
      "Ġcloudy": 1271,
      "Ġshop": 1272,
      "atoes": 1273,
      "olate": 1274,
      "Ġex": 1275,
      "Ġdisplayed": 1276,
      "ER": 1277,
      "Ġthrowing": 1278,
      "Ġincl": 1279,
      "Ġgrey": 1280,
      "pped": 1281,
      "Ġattached": 1282,
      "Ġpe": 1283,
      "old": 1284,
      "Ġgirls": 1285,
      "Ġwaves": 1286,
      "Ġoranges": 1287,
      "Ġstat": 1288,
      "ocolate": 1289,
      "Ġfork": 1290,
      "day": 1291,
      "Ġcoming": 1292,
      "Ġmonitor": 1293,
      "Ġonto": 1294,
      "Ġleaning": 1295,
      "Ġmaking": 1296,
      "met": 1297,
      "ings": 1298,
      "oon": 1299,
      "Ġfla": 1300,
      "ily": 1301,
      "Ġwindows": 1302,
      "Ġclean": 1303,
      "Ġchocolate": 1304,
      "inking": 1305,
      "Ġshelf": 1306,
      "ĠWoman": 1307,
      "Ġcrossing": 1308,
      "Ġperform": 1309,
      "ish": 1310,
      "Ġskiers": 1311,
      "Ġadult": 1312,
      "Ġstone": 1313,
      "Ġsalad": 1314,
      "ance": 1315,
      "Ġho": 1316,
      "Ġdining": 1317,
      "irth": 1318,
      "Ġrocks": 1319,
      "Ġscene": 1320,
      "Ġpainted": 1321,
      "ble": 1322,
      "irthday": 1323,
      "Ġhitting": 1324,
      "Ġdrinking": 1325,
      "Ġlush": 1326,
      "by": 1327,
      "Ġseen": 1328,
      "Ġwatch": 1329,
      "Ġcats": 1330,
      "Ġflower": 1331,
      "Ġmeter": 1332,
      "Ġturn": 1333,
      "Ġob": 1334,
      "Ġmult": 1335,
      "ĠOF": 1336,
      "male": 1337,
      "Ġbasket": 1338,
      "LE": 1339,
      "Ġwalls": 1340,
      "els": 1341,
      "de": 1342,
      "Ġresting": 1343,
      "Ġpen": 1344,
      "Ġcook": 1345,
      "Ġtowards": 1346,
      "Ġmarket": 1347,
      "Ġcomm": 1348,
      "Ġspe": 1349,
      "Ġed": 1350,
      "Ġlamp": 1351,
      "Ġbirthday": 1352,
      "Ġelect": 1353,
      "int": 1354,
      "ken": 1355,
      "aut": 1356,
      "ublic": 1357,
      "Ġcountry": 1358,
      "Ġfre": 1359,
      "Ġeng": 1360,
      "oot": 1361,
      "Ġsunny": 1362,
      "ents": 1363,
      "ary": 1364,
      "Ġoffice": 1365,
      "Ġclear": 1366,
      "Ġsetting": 1367,
      "Ġfries": 1368,
      "Ġlay": 1369,
      "Ġfruits": 1370,
      "stic": 1371,
      "per": 1372,
      "eth": 1373,
      "ĠIN": 1374,
      "Ġblanket": 1375,
      "Ġpublic": 1376,
      "Ġwork": 1377,
      "Ġtables": 1378,
      "Ġpa": 1379,
      "Ġcatch": 1380,
      "Ġsomeone": 1381,
      "Ġclot": 1382,
      "Ġleaves": 1383,
      "autif": 1384,
      "Ġmoving": 1385,
      "ear": 1386,
      "Ġapples": 1387,
      "aching": 1388,
      "ĠSm": 1389,
      "Ġstopped": 1390,
      "Ġfemale": 1391,
      "jo": 1392,
      "Ġplastic": 1393,
      "Ġbeen": 1394,
      "Ġass": 1395,
      "Ġedge": 1396,
      "less": 1397,
      "Ġcatcher": 1398,
      "Ġteeth": 1399,
      "Ġsurfboards": 1400,
      "Ġhelmet": 1401,
      "Ġenjo": 1402,
      "sp": 1403,
      "Ġmountains": 1404,
      "Ġplatform": 1405,
      "Ġpath": 1406,
      "Ġpictures": 1407,
      "autiful": 1408,
      "ats": 1409,
      "Ġshot": 1410,
      "Ġtom": 1411,
      "Ġnot": 1412,
      "Ġtv": 1413,
      "Ġsmile": 1414,
      "Ġworking": 1415,
      "ĠBlack": 1416,
      "Ġbikes": 1417,
      "lection": 1418,
      "neath": 1419,
      "Ġstack": 1420,
      "Ġride": 1421,
      "Ġshort": 1422,
      "Ġunderneath": 1423,
      "Ġdonut": 1424,
      "Ġpart": 1425,
      "Ġcre": 1426,
      "Ġtopping": 1427,
      "Ġtrying": 1428,
      "Ġtoothb": 1429,
      "Ġsqu": 1430,
      "tered": 1431,
      "Ġbel": 1432,
      "ĠAN": 1433,
      "ety": 1434,
      "Ġbranch": 1435,
      "Ġur": 1436,
      "Ġsub": 1437,
      "Ġbeautiful": 1438,
      "Ġcart": 1439,
      "hed": 1440,
      "Ġstatue": 1441,
      "Ġapple": 1442,
      "Ġshap": 1443,
      "oll": 1444,
      "Ġdist": 1445,
      "Ġyard": 1446,
      "hered": 1447,
      "oarding": 1448,
      "Ġsnowboarder": 1449,
      "Ġpolice": 1450,
      "AR": 1451,
      "Ġbut": 1452,
      "Ġbase": 1453,
      "ally": 1454,
      "Ġlap": 1455,
      "Ġslices": 1456,
      "ĠSomeone": 1457,
      "Ġcarri": 1458,
      "ĠYoung": 1459,
      "Ġtime": 1460,
      "Ġskateboarding": 1461,
      "Ġplaced": 1462,
      "Ġvan": 1463,
      "len": 1464,
      "Ġwet": 1465,
      "Ġshows": 1466,
      "Ġhaving": 1467,
      "Ġperched": 1468,
      "Ġpitch": 1469,
      "Ġpep": 1470,
      "run": 1471,
      "ĠSmall": 1472,
      "Ġcellphone": 1473,
      "inal": 1474,
      "Ġfac": 1475,
      "ist": 1476,
      "Ġshore": 1477,
      "Ġdraw": 1478,
      "Ġsing": 1479,
      "Ġcomputers": 1480,
      "Ġcase": 1481,
      "Ġpieces": 1482,
      "wn": 1483,
      "Ġnice": 1484,
      "ling": 1485,
      "Ġsho": 1486,
      "Ġpassing": 1487,
      "ĠTHERE": 1488,
      "Ġwild": 1489,
      "Ġpitcher": 1490,
      "gers": 1491,
      "ric": 1492,
      "Ġdire": 1493,
      "top": 1494,
      "Ġwire": 1495,
      "Ġsurface": 1496,
      "ĠK": 1497,
      "Ġput": 1498,
      "ares": 1499,
      "Ġgar": 1500,
      "Ġfresh": 1501,
      "ect": 1502,
      "Ġsandy": 1503,
      "Ġfam": 1504,
      "Ġcooking": 1505,
      "dern": 1506,
      "Ġappl": 1507,
      "Ġassort": 1508,
      "Ġvehicle": 1509,
      "Ġeaten": 1510,
      "ITH": 1511,
      "Ġdry": 1512,
      "ĠWITH": 1513,
      "ĠGro": 1514,
      "Ġneck": 1515,
      "Ġlaptops": 1516,
      "Ġmil": 1517,
      "Ġvases": 1518,
      "ix": 1519,
      "ition": 1520,
      "Ġconc": 1521,
      "ĠLarge": 1522,
      "Ġdoughnut": 1523,
      "ĠGroup": 1524,
      "Ġboards": 1525,
      "Ġbrushing": 1526,
      "Ġtypes": 1527,
      "Ġdinner": 1528,
      "Ġapplian": 1529,
      "ines": 1530,
      "Ġland": 1531,
      "Ġhotel": 1532,
      "Ġpizzas": 1533,
      "Ġtan": 1534,
      "Ġreading": 1535,
      "Ġsauce": 1536,
      "Ġtiled": 1537,
      "Ġbeer": 1538,
      "ery": 1539,
      "Ġey": 1540,
      "iple": 1541,
      "Ġtoppings": 1542,
      "inten": 1543,
      "intendo": 1544,
      "Ġarm": 1545,
      "bor": 1546,
      "Ġothers": 1547,
      "Ġtrun": 1548,
      "Ġwatches": 1549,
      "Ġaf": 1550,
      "iti": 1551,
      "Ġjust": 1552,
      "Ġfeat": 1553,
      "Ġtown": 1554,
      "th": 1555,
      "icken": 1556,
      "Ġroll": 1557,
      "Ġengine": 1558,
      "ca": 1559,
      "Ġthey": 1560,
      "Ġgat": 1561,
      "ides": 1562,
      "Ġtrains": 1563,
      "eeding": 1564,
      "Ġsty": 1565,
      "Ġfamily": 1566,
      "ley": 1567,
      "Ġkind": 1568,
      "Ġbenches": 1569,
      "Ġpret": 1570,
      "os": 1571,
      "ject": 1572,
      "Ġplants": 1573,
      "Ġtake": 1574,
      "ized": 1575,
      "ins": 1576,
      "Ġmounted": 1577,
      "Ġenjoying": 1578,
      "ffiti": 1579,
      "road": 1580,
      "Ġsingle": 1581,
      "Ġcurb": 1582,
      "Ġnew": 1583,
      "htub": 1584,
      "Ġdoughnuts": 1585,
      "armac": 1586,
      "Ġequ": 1587,
      "bb": 1588,
      "ures": 1589,
      "Ġbathtub": 1590,
      "Ġsof": 1591,
      "Ġdistance": 1592,
      "Ġtarmac": 1593,
      "Ġpack": 1594,
      "Ġleft": 1595,
      "ming": 1596,
      "Ġmodern": 1597,
      "ely": 1598,
      "Ġgear": 1599,
      "Ġchicken": 1600,
      "Ġphones": 1601,
      "Ġafter": 1602,
      "Ġpretty": 1603,
      "cial": 1604,
      "Ġgri": 1605,
      "Ġperforming": 1606,
      "que": 1607,
      "Ġflat": 1608,
      "Ġsee": 1609,
      "vers": 1610,
      "Ġvariety": 1611,
      "Ġplace": 1612,
      "Ġshoes": 1613,
      "Ġwoods": 1614,
      "Ġgathered": 1615,
      "Ġpad": 1616,
      "Ġguys": 1617,
      "Ġtrucks": 1618,
      "Ġtricks": 1619,
      "Ġappliances": 1620,
      "Ġhotdo": 1621,
      "Ġwas": 1622,
      "Ġbowls": 1623,
      "Ġfenced": 1624,
      "Ġsail": 1625,
      "Ġcontaining": 1626,
      "edest": 1627,
      "Ġfly": 1628,
      "Ġend": 1629,
      "Ġswim": 1630,
      "Ġarran": 1631,
      "ĠOne": 1632,
      "Ġ.": 1633,
      "Ġglo": 1634,
      "Ġgraffiti": 1635,
      "Ġrice": 1636,
      "Ġdesser": 1637,
      "place": 1638,
      "ĠU": 1639,
      "Ġcandles": 1640,
      "Ġcurtain": 1641,
      "ages": 1642,
      "Ġflies": 1643,
      "Ġcute": 1644,
      "Ġbal": 1645,
      "Ġwell": 1646,
      "Ġstair": 1647,
      "Ġcarriage": 1648,
      "Ġpasture": 1649,
      "rete": 1650,
      "Ġfeeding": 1651,
      "Ġconcrete": 1652,
      "ĠAND": 1653,
      "Ġtoothbrush": 1654,
      "Ġtran": 1655,
      "Ġpoles": 1656,
      "Ġteam": 1657,
      "Ġbelow": 1658,
      "Ġbottles": 1659,
      "Ġfo": 1660,
      "pack": 1661,
      "Ġpoin": 1662,
      "Ġpassengers": 1663,
      "uding": 1664,
      "Ġspoon": 1665,
      "Ġbags": 1666,
      "Ġrailroad": 1667,
      "ronic": 1668,
      "chool": 1669,
      "Ġclut": 1670,
      "Ġmatch": 1671,
      "head": 1672,
      "ram": 1673,
      "Ġfoot": 1674,
      "enter": 1675,
      "anc": 1676,
      "Ġincluding": 1677,
      "Ġind": 1678,
      "uck": 1679,
      "Ġwii": 1680,
      "Ġright": 1681,
      "Ġdirty": 1682,
      "Ġonion": 1683,
      "Ġdrinks": 1684,
      "iding": 1685,
      "light": 1686,
      "Ġtakes": 1687,
      "Ġsteel": 1688,
      "Ġpillows": 1689,
      "OM": 1690,
      "Ġfireplace": 1691,
      "Ġbreak": 1692,
      "Ġsofa": 1693,
      "ini": 1694,
      "ession": 1695,
      "Ġpul": 1696,
      "man": 1697,
      "Ġcenter": 1698,
      "Ġamong": 1699,
      "intage": 1700,
      "Ġschool": 1701,
      "Ġbackpack": 1702,
      "ball": 1703,
      "ĠST": 1704,
      "Ġstep": 1705,
      "ads": 1706,
      "uches": 1707,
      "ips": 1708,
      "Ġstriped": 1709,
      "Ġpulled": 1710,
      "ĠNintendo": 1711,
      "Ġalone": 1712,
      "Ġpedest": 1713,
      "Ġcrowded": 1714,
      "Ġelectronic": 1715,
      "Ġwr": 1716,
      "iches": 1717,
      "Ġclos": 1718,
      "uge": 1719,
      "Ġnearby": 1720,
      "ied": 1721,
      "Ġbeds": 1722,
      "fe": 1723,
      "upp": 1724,
      "mb": 1725,
      "Ġcatching": 1726,
      "iv": 1727,
      "Ġwra": 1728,
      "AL": 1729,
      "ged": 1730,
      "ower": 1731,
      "Ġap": 1732,
      "urch": 1733,
      "Ġskateboards": 1734,
      "Ġfridge": 1735,
      "Ġpainting": 1736,
      "Ġtrunk": 1737,
      "Ġobject": 1738,
      "Ġcabinet": 1739,
      "ames": 1740,
      "Ġcontainer": 1741,
      "Ġlet": 1742,
      "Ġloc": 1743,
      "rist": 1744,
      "Ġequip": 1745,
      "Ġshaped": 1746,
      "Ġcattle": 1747,
      "Ġfeet": 1748,
      "Ġdirection": 1749,
      "ered": 1750,
      "Ġsinks": 1751,
      "Ġequipment": 1752,
      "ens": 1753,
      "Ġboxes": 1754,
      "anding": 1755,
      "Ġcream": 1756,
      "Ġserved": 1757,
      "Ġhuge": 1758,
      "ural": 1759,
      "Ġqu": 1760,
      "Ġplays": 1761,
      "Ġpolar": 1762,
      "fession": 1763,
      "lin": 1764,
      "Ġreaching": 1765,
      "Ġbushes": 1766,
      "stru": 1767,
      "Ġkne": 1768,
      "Ġsandwiches": 1769,
      "self": 1770,
      "ical": 1771,
      "Ġwhere": 1772,
      "Ġputting": 1773,
      "Ġmess": 1774,
      "Ġplanes": 1775,
      "Ġchurch": 1776,
      "Ġdeser": 1777,
      "aking": 1778,
      "Ġfloating": 1779,
      "Ġwait": 1780,
      "Ġsmiles": 1781,
      "fessional": 1782,
      "Ġstall": 1783,
      "Ġposes": 1784,
      "ual": 1785,
      "Ġatop": 1786,
      "Ġgiant": 1787,
      "Ġsuitcases": 1788,
      "Ġround": 1789,
      "Ġsticking": 1790,
      "alm": 1791,
      "eling": 1792,
      "Ġvintage": 1793,
      "Ġtrail": 1794,
      "Ġtaken": 1795,
      "Ġprepares": 1796,
      "Ġboth": 1797,
      "ycl": 1798,
      "Ġserve": 1799,
      "Ġlays": 1800,
      "Ġtomatoes": 1801,
      "Ġaway": 1802,
      "Ġlegs": 1803,
      "Ġclothes": 1804,
      "wing": 1805,
      "Ġtowel": 1806,
      "Ġcover": 1807,
      "Ġhay": 1808,
      "Ġgold": 1809,
      "Ġspace": 1810,
      "Ġstyle": 1811,
      "rus": 1812,
      "Ġwed": 1813,
      "land": 1814,
      "ons": 1815,
      "Ġbicycles": 1816,
      "glass": 1817,
      "Ġblo": 1818,
      "Ġrug": 1819,
      "RO": 1820,
      "Ġserving": 1821,
      "sc": 1822,
      "Ġdishes": 1823,
      "Ġsliced": 1824,
      "ercial": 1825,
      "Ġstaring": 1826,
      "elling": 1827,
      "Ġart": 1828,
      "ato": 1829,
      "aked": 1830,
      "Ġpotatoes": 1831,
      "Ġmas": 1832,
      "EN": 1833,
      "iness": 1834,
      "Ġcheck": 1835,
      "ident": 1836,
      "let": 1837,
      "owing": 1838,
      "mas": 1839,
      "Ġfa": 1840,
      "IS": 1841,
      "Ġstain": 1842,
      "Ġpose": 1843,
      "Ġvehicles": 1844,
      "fast": 1845,
      "Ġblen": 1846,
      "Ġoffic": 1847,
      "ber": 1848,
      "Ġpos": 1849,
      "ĠBo": 1850,
      "Ġdev": 1851,
      "ashion": 1852,
      "reet": 1853,
      "Ġfoods": 1854,
      "Ġcement": 1855,
      "glasses": 1856,
      "Ġwhich": 1857,
      "Ġmultiple": 1858,
      "rench": 1859,
      "Ġform": 1860,
      "Ġshorts": 1861,
      "Ġreflection": 1862,
      "Ġpool": 1863,
      "ristmas": 1864,
      "ise": 1865,
      "Ġdesign": 1866,
      "iny": 1867,
      "unch": 1868,
      "ĠStreet": 1869,
      "ĠSk": 1870,
      "Ġstacked": 1871,
      "Ġbusiness": 1872,
      "OP": 1873,
      "Ġcra": 1874,
      "ward": 1875,
      "ĠZ": 1876,
      "boarding": 1877,
      "ique": 1878,
      "vent": 1879,
      "out": 1880,
      "Ġtour": 1881,
      "aded": 1882,
      "Ġsmo": 1883,
      "vert": 1884,
      "ular": 1885,
      "Ġump": 1886,
      "Ġsame": 1887,
      "ils": 1888,
      "ract": 1889,
      "hite": 1890,
      "Ġairplanes": 1891,
      "ĠARE": 1892,
      "Ġsubway": 1893,
      "Ġwin": 1894,
      "Ġpillow": 1895,
      "ban": 1896,
      "Ġcommercial": 1897,
      "ĠPerson": 1898,
      "Ġdel": 1899,
      "Ġstraw": 1900,
      "urry": 1901,
      "Ġsoup": 1902,
      "io": 1903,
      "ants": 1904,
      "Ġswings": 1905,
      "ists": 1906,
      "arden": 1907,
      "Ġprofessional": 1908,
      "Ġtrash": 1909,
      "Ġsurfers": 1910,
      "ĠAs": 1911,
      "Ġmother": 1912,
      "Ġoutdoors": 1913,
      "Ġbreakfast": 1914,
      "Ġroo": 1915,
      "AS": 1916,
      "Ġdocked": 1917,
      "Ġseated": 1918,
      "Ġoutf": 1919,
      "Ġurinal": 1920,
      "Ġumpire": 1921,
      "Ġlow": 1922,
      "Ġfarm": 1923,
      "Ġkitten": 1924,
      "Ġdessert": 1925,
      "Ġfrien": 1926,
      "ates": 1927,
      "Ġgames": 1928,
      "Ġsunglasses": 1929,
      "ĠDo": 1930,
      "Ġswimming": 1931,
      "Ġgarden": 1932,
      "Ġsquare": 1933,
      "Ġhard": 1934,
      "Ġflag": 1935,
      "artment": 1936,
      "ults": 1937,
      "Ġcluttered": 1938,
      "Ġpedestri": 1939,
      "Ġget": 1940,
      "Ġcouches": 1941,
      "ET": 1942,
      "tom": 1943,
      "Ġhighway": 1944,
      "struction": 1945,
      "ES": 1946,
      "Ġoverl": 1947,
      "itary": 1948,
      "ium": 1949,
      "kets": 1950,
      "Ġcooked": 1951,
      "Ġhotdog": 1952,
      "ded": 1953,
      "ĠTra": 1954,
      "Ġblender": 1955,
      "Ġant": 1956,
      "Ġfun": 1957,
      "Ġboarding": 1958,
      "Ġwedding": 1959,
      "Ġlone": 1960,
      "ĠClo": 1961,
      "Ġclocks": 1962,
      "Ġpepper": 1963,
      "Ġmach": 1964,
      "Ġcontrollers": 1965,
      "Ġsay": 1966,
      "Ġcro": 1967,
      "icing": 1968,
      "Ġear": 1969,
      "Ġdrives": 1970,
      "Ġhillside": 1971,
      "made": 1972,
      "OT": 1973,
      "Ġgather": 1974,
      "Ġkick": 1975,
      "liner": 1976,
      "Ġice": 1977,
      "Ġent": 1978,
      "iler": 1979,
      "pping": 1980,
      "Ġhar": 1981,
      "Ġham": 1982,
      "read": 1983,
      "oni": 1984,
      "Ġter": 1985,
      "Ġdoors": 1986,
      "Ġrestroom": 1987,
      "Ġret": 1988,
      "Ġrocky": 1989,
      "Ġledge": 1990,
      "Ġjumps": 1991,
      "Ġsignal": 1992,
      "Ġeyes": 1993,
      "ddle": 1994,
      "Ġceiling": 1995,
      "Ġlad": 1996,
      "Ġwooded": 1997,
      "Ġfashion": 1998,
      "Ġdesktop": 1999,
      "co": 2000,
      "Ġprod": 2001,
      "Ġonions": 2002,
      "Ġlawn": 2003,
      "Ġappro": 2004,
      "Ġfacing": 2005,
      "Ġdoes": 2006,
      "Ġgr": 2007,
      "Ġflock": 2008,
      "Ġmus": 2009,
      "fore": 2010,
      "ng": 2011,
      "Ġeats": 2012,
      "OW": 2013,
      "ou": 2014,
      "Ġfall": 2015,
      "Ġstainless": 2016,
      "ned": 2017,
      "Ġacc": 2018,
      "ddler": 2019,
      "nic": 2020,
      "Ġshelves": 2021,
      "Ġpointing": 2022,
      "ĠAsian": 2023,
      "Ġfram": 2024,
      "Ġstairs": 2025,
      "Ġskies": 2026,
      "ared": 2027,
      "Ġfish": 2028,
      "Ġthings": 2029,
      "Ġrace": 2030,
      "Ġdrawn": 2031,
      "Ġdesert": 2032,
      "sting": 2033,
      "ĠGi": 2034,
      "ggs": 2035,
      "OR": 2036,
      "br": 2037,
      "Ġbefore": 2038,
      "ious": 2039,
      "uter": 2040,
      "mer": 2041,
      "irc": 2042,
      "Ġevent": 2043,
      "Ġcups": 2044,
      "ears": 2045,
      "Ġinclud": 2046,
      "Ġut": 2047,
      "Ġext": 2048,
      "Ġclouds": 2049,
      "Ġprop": 2050,
      "Ġcr": 2051,
      "ĠChristmas": 2052,
      "Ġglove": 2053,
      "iff": 2054,
      "set": 2055,
      "ung": 2056,
      "Ġhold": 2057,
      "range": 2058,
      "Ġmake": 2059,
      "DING": 2060,
      "ier": 2061,
      "ĠJ": 2062,
      "Ġcard": 2063,
      "Ġsea": 2064,
      "ON": 2065,
      "arrow": 2066,
      "eds": 2067,
      "Ġsteps": 2068,
      "Ġoutfit": 2069,
      "Ġdoll": 2070,
      "Ġcoat": 2071,
      "av": 2072,
      "icks": 2073,
      "Ġgate": 2074,
      "cted": 2075,
      "Ġfree": 2076,
      "ĠZebra": 2077,
      "Ġsays": 2078,
      "Ġtoddler": 2079,
      "Ġassortment": 2080,
      "IR": 2081,
      "Ġcla": 2082,
      "Ġroof": 2083,
      "ative": 2084,
      "Ġneat": 2085,
      "Ġcompet": 2086,
      "Ġatte": 2087,
      "Ġvegg": 2088,
      "Ġmilitary": 2089,
      "Ġcost": 2090,
      "cture": 2091,
      "Ġrackets": 2092,
      "Ġsteep": 2093,
      "Ġarranged": 2094,
      "Ġeggs": 2095,
      "ations": 2096,
      "rushes": 2097,
      "ĠMen": 2098,
      "Ġarms": 2099,
      "ĠIn": 2100,
      "Ġinter": 2101,
      "Ġadvert": 2102,
      "ns": 2103,
      "pers": 2104,
      "Ġdisc": 2105,
      "Ġmod": 2106,
      "Ġsnowboarding": 2107,
      "Ġcostum": 2108,
      "Ġpond": 2109,
      "Ġchop": 2110,
      "Ġwheel": 2111,
      "Ġfig": 2112,
      "Ġmonitors": 2113,
      "go": 2114,
      "Ġfloors": 2115,
      "Ġcloth": 2116,
      "ia": 2117,
      "Ġcirc": 2118,
      "aches": 2119,
      "phones": 2120,
      "xing": 2121,
      "ĠGira": 2122,
      "bs": 2123,
      "Ġtype": 2124,
      "Ġlanding": 2125,
      "Ġparty": 2126,
      "uc": 2127,
      "Ġfrench": 2128,
      "Ġtrailer": 2129,
      "Ġpicnic": 2130,
      "Ġgraze": 2131,
      "Ġbottom": 2132,
      "cakes": 2133,
      "AC": 2134,
      "ring": 2135,
      "Ġbroken": 2136,
      "ired": 2137,
      "ork": 2138,
      "Ġoverlooking": 2139,
      "Ġlunch": 2140,
      "key": 2141,
      "Ġcage": 2142,
      "Ġlett": 2143,
      "az": 2144,
      "Ġtied": 2145,
      "Ġconstruction": 2146,
      "Ġkneeling": 2147,
      "Ġboarder": 2148,
      "ĠWhite": 2149,
      "Ġdep": 2150,
      "ony": 2151,
      "Ġju": 2152,
      "Ġmust": 2153,
      "Ġmini": 2154,
      "pet": 2155,
      "Ġnap": 2156,
      "ĠMAN": 2157,
      "Ġmix": 2158,
      "Ġnarrow": 2159,
      "Ġcolors": 2160,
      "Ġtrans": 2161,
      "ancy": 2162,
      "Ġreads": 2163,
      "Ġsteam": 2164,
      "Ġclosed": 2165,
      "Ġwide": 2166,
      "Ġfight": 2167,
      "Ġhous": 2168,
      "Ġskating": 2169,
      "Ġadults": 2170,
      "Ġelectric": 2171,
      "Ġrider": 2172,
      "Ġmachine": 2173,
      "Ġsides": 2174,
      "Ġnet": 2175,
      "Ġport": 2176,
      "Ġindo": 2177,
      "Ġcap": 2178,
      "ially": 2179,
      "Ġopp": 2180,
      "Ġmag": 2181,
      "ĠVari": 2182,
      "Ġstru": 2183,
      "Ġbever": 2184,
      "Ġstra": 2185,
      "ctor": 2186,
      "Ġpots": 2187,
      "so": 2188,
      "ĠBas": 2189,
      "Ġhimself": 2190,
      "Ġoverhead": 2191,
      "IC": 2192,
      "na": 2193,
      "Ġsweat": 2194,
      "uching": 2195,
      "Ġsale": 2196,
      "Ġtw": 2197,
      "Ġket": 2198,
      "Ġsuits": 2199,
      "adow": 2200,
      "urf": 2201,
      "Ġcakes": 2202,
      "ĠCat": 2203,
      "AY": 2204,
      "Ġplain": 2205,
      "Ġwalkway": 2206,
      "ĠShe": 2207,
      "Ġleather": 2208,
      "ĠPL": 2209,
      "Ġappears": 2210,
      "Ġmessy": 2211,
      "Ġi": 2212,
      "Ġchef": 2213,
      "Ġpasta": 2214,
      "Ġchain": 2215,
      "Ġcarpet": 2216,
      "ĠFive": 2217,
      "Ġpract": 2218,
      "Ġforeground": 2219,
      "Ġfeatures": 2220,
      "Ġgrill": 2221,
      "rink": 2222,
      "Ġties": 2223,
      "Ġrela": 2224,
      "ĠTHAT": 2225,
      "Ġbite": 2226,
      "Ġsmart": 2227,
      "Ġorn": 2228,
      "Ġassorted": 2229,
      "Ġfancy": 2230,
      "ican": 2231,
      "Ġshade": 2232,
      "Ġveggies": 2233,
      "Ġpants": 2234,
      "Ġje": 2235,
      "Ġsunset": 2236,
      "Ġstret": 2237,
      "Ġtransit": 2238,
      "Ġtowels": 2239,
      "ushroom": 2240,
      "Ġmug": 2241,
      "Ġgl": 2242,
      "Ġfriends": 2243,
      "urger": 2244,
      "Ġgood": 2245,
      "Ġpier": 2246,
      "Ġblock": 2247,
      "ooter": 2248,
      "Ġbik": 2249,
      "Ġloaded": 2250,
      "ators": 2251,
      "Ġcarrot": 2252,
      "Ġtoilets": 2253,
      "ĠRed": 2254,
      "Ġstill": 2255,
      "Ġship": 2256,
      "Ġpartially": 2257,
      "Ġheld": 2258,
      "Ġphotos": 2259,
      "Ġurban": 2260,
      "Ġshoul": 2261,
      "iers": 2262,
      "Ġsport": 2263,
      "Ġdevice": 2264,
      "Ġbeard": 2265,
      "OU": 2266,
      "ives": 2267,
      "Ġmushroom": 2268,
      "Ġclothing": 2269,
      "ĠBaseball": 2270,
      "Ġsill": 2271,
      "Ġrefle": 2272,
      "Ġposition": 2273,
      "Ġpepperoni": 2274,
      "Ġmis": 2275,
      "Ġenter": 2276,
      "Ġ2": 2277,
      "Ġbeneath": 2278,
      "Ġscooter": 2279,
      "Ġpastries": 2280,
      "Ġfashioned": 2281,
      "Ġcas": 2282,
      "Ġaction": 2283,
      "Ġdrive": 2284,
      "Ġhole": 2285,
      "ĠVarious": 2286,
      "ucks": 2287,
      "Ġlies": 2288,
      "Ġleash": 2289,
      "rop": 2290,
      "ED": 2291,
      "laz": 2292,
      "Ġtoys": 2293,
      "Ġkinds": 2294,
      "Ġwrapped": 2295,
      "house": 2296,
      "Ġgets": 2297,
      "ĠAd": 2298,
      "Ġvis": 2299,
      "Ġracing": 2300,
      "ef": 2301,
      "Ġpalm": 2302,
      "Ġmakes": 2303,
      "ĠClose": 2304,
      "Ġstructure": 2305,
      "Ġchips": 2306,
      "imb": 2307,
      "Ġcontains": 2308,
      "ib": 2309,
      "Ġrailing": 2310,
      "Ġhapp": 2311,
      "ock": 2312,
      "Ġgiving": 2313,
      "Ġrust": 2314,
      "Ġpaw": 2315,
      "Ġsaus": 2316,
      "Ġpastry": 2317,
      "Ġtomato": 2318,
      "Ġharbor": 2319,
      "me": 2320,
      "Ġsprink": 2321,
      "Ġwinter": 2322,
      "Ġtoas": 2323,
      "cket": 2324,
      "Ġpee": 2325,
      "Ġmud": 2326,
      "ĠOld": 2327,
      "mon": 2328,
      "Ġwhat": 2329,
      "Ġhouses": 2330,
      "Ġwets": 2331,
      "Ġfeed": 2332,
      "Ġapartment": 2333,
      "Ġpetting": 2334,
      "Ġsupp": 2335,
      "ighting": 2336,
      "Ġdoorway": 2337,
      "Ġwetsuit": 2338,
      "Ġbull": 2339,
      "Ġsmoke": 2340,
      "Ġincludes": 2341,
      "Ġlettuce": 2342,
      "ible": 2343,
      "Ġsy": 2344,
      "Ġfighter": 2345,
      "Ġrests": 2346,
      "da": 2347,
      "ike": 2348,
      "Ġclass": 2349,
      "agull": 2350,
      "Ġisland": 2351,
      "Ġused": 2352,
      "Ġgarage": 2353,
      "cting": 2354,
      "ird": 2355,
      "Ġteen": 2356,
      "..": 2357,
      "ĠĊ": 2358,
      "Ġsheet": 2359,
      "Ġmodel": 2360,
      "Ġsort": 2361,
      "eller": 2362,
      "ught": 2363,
      "Ġuse": 2364,
      "itten": 2365,
      "Ġlid": 2366,
      "olored": 2367,
      "Ġcomf": 2368,
      "Ġpeppers": 2369,
      "Ġleading": 2370,
      "yard": 2371,
      "Ġbaked": 2372,
      "be": 2373,
      "Ġfoll": 2374,
      "Ġspot": 2375,
      "Ġantique": 2376,
      "Ġfur": 2377,
      "Ġopened": 2378,
      "Ġmound": 2379,
      "Ġdecorative": 2380,
      "Ġstun": 2381,
      "ĠPl": 2382,
      "Ġvanity": 2383,
      "act": 2384,
      "KING": 2385,
      "Ġstreets": 2386,
      "acon": 2387,
      "Ġself": 2388,
      "ray": 2389,
      "Ġblond": 2390,
      "ĠAir": 2391,
      "Ġleaf": 2392,
      "ost": 2393,
      "lage": 2394,
      "idential": 2395,
      "Ġmed": 2396,
      "Ġsiz": 2397,
      "Ġdra": 2398,
      "Ġcontainers": 2399,
      "Ġwaits": 2400,
      "Ġlift": 2401,
      "Ġprepared": 2402,
      "Ġreturn": 2403,
      "Ġbeans": 2404,
      "Ġupside": 2405,
      "Ġrural": 2406,
      "ps": 2407,
      "Ġutens": 2408,
      "Ġpropeller": 2409,
      "ulpt": 2410,
      "Ġpapers": 2411,
      "Ġcandle": 2412,
      "Ġcommuter": 2413,
      "OO": 2414,
      "ĠBl": 2415,
      "ĠChild": 2416,
      "Ġturned": 2417,
      "Ġwriting": 2418,
      "gon": 2419,
      "Ġnood": 2420,
      "Ġshopping": 2421,
      "Ġru": 2422,
      "ering": 2423,
      "Ġmit": 2424,
      "Ġhats": 2425,
      "Ġcele": 2426,
      "Ġbacon": 2427,
      "Ġproduce": 2428,
      "ige": 2429,
      "Ġpave": 2430,
      "Ġpans": 2431,
      "scap": 2432,
      "Ġblurry": 2433,
      "Ġheads": 2434,
      "Ġhood": 2435,
      "Ġripe": 2436,
      "Ġsheets": 2437,
      "Ġalongside": 2438,
      "Ġbarn": 2439,
      "Ġnose": 2440,
      "ield": 2441,
      "ining": 2442,
      "unding": 2443,
      "Ġsmal": 2444,
      "Ġpavement": 2445,
      "hel": 2446,
      "Ġsculpt": 2447,
      "Ġsoda": 2448,
      "Ġfrosting": 2449,
      "Ġpaddle": 2450,
      "yclist": 2451,
      "Ġjuice": 2452,
      "ĠEle": 2453,
      "Ġstrawber": 2454,
      "Ġfive": 2455,
      "Ġmeters": 2456,
      "bage": 2457,
      "Ġcond": 2458,
      "Ġsnowboards": 2459,
      "Ġtur": 2460,
      "Ġflight": 2461,
      "Ġbush": 2462,
      "Ġpatio": 2463,
      "Ġpr": 2464,
      "erial": 2465,
      "Ġstream": 2466,
      "Ġlog": 2467,
      "Ġlamb": 2468,
      "Ġgroom": 2469,
      "erly": 2470,
      "Ġtouching": 2471,
      "Ġremotes": 2472,
      "Ġlaid": 2473,
      "Ġbranches": 2474,
      "Ġsmaller": 2475,
      "ĠTO": 2476,
      "Ġtea": 2477,
      "Ġmilk": 2478,
      "Ġdirections": 2479,
      "Ġsized": 2480,
      "ital": 2481,
      "aper": 2482,
      "Ġresidential": 2483,
      "Ġpurse": 2484,
      "Ġbrightly": 2485,
      "Ġtank": 2486,
      "Ġtiny": 2487,
      "Ġsep": 2488,
      "chup": 2489,
      "Ġseagull": 2490,
      "Ġegg": 2491,
      "Ġrainy": 2492,
      "Ġkicking": 2493,
      "Ġketchup": 2494,
      "ĠPE": 2495,
      "Ġitself": 2496,
      "cker": 2497,
      "Ġparade": 2498,
      "Ġmulti": 2499,
      "Ġurinals": 2500,
      "Ġgen": 2501,
      "Ġdisplaying": 2502,
      "Ġbuilt": 2503,
      "ivid": 2504,
      "Ġterm": 2505,
      "Ġcostume": 2506,
      "Ġloading": 2507,
      "ĠAT": 2508,
      "Ġpersons": 2509,
      "Ġdresser": 2510,
      "kin": 2511,
      "Ġriders": 2512,
      "Ġofficer": 2513,
      "bile": 2514,
      "Ġcloseup": 2515,
      "pl": 2516,
      "ĠCars": 2517,
      "Ġlines": 2518,
      "Ġmustard": 2519,
      "Ġwar": 2520,
      "Ġcub": 2521,
      "Ġbeige": 2522,
      "Ġpersonal": 2523,
      "Ġtent": 2524,
      "Ġsem": 2525,
      "Ġflags": 2526,
      "ina": 2527,
      "ature": 2528,
      "Ġterminal": 2529,
      "Ġdeep": 2530,
      "ail": 2531,
      "lies": 2532,
      "Ġsliding": 2533,
      "Ġrear": 2534,
      "Ġplatter": 2535,
      "AB": 2536,
      "ĠMult": 2537,
      "Ġenclosed": 2538,
      "Ġuniforms": 2539,
      "Ġutensils": 2540,
      "Ġow": 2541,
      "ster": 2542,
      "Ġdecorations": 2543,
      "Ġpedestrians": 2544,
      "TING": 2545,
      "Ġmushrooms": 2546,
      "ĠBoy": 2547,
      "Ġapproaching": 2548,
      "Ġsailing": 2549,
      "Ġnoodles": 2550,
      "ness": 2551,
      "Ġpower": 2552,
      "Ġhall": 2553,
      "ices": 2554,
      "Ġleg": 2555,
      "Ġgoes": 2556,
      "Ġthrows": 2557,
      "Ġsausage": 2558,
      "cra": 2559,
      "Ġwaters": 2560,
      "Ġleans": 2561,
      "Ġuses": 2562,
      "scape": 2563,
      "ALL": 2564,
      "Ġrais": 2565,
      "Ġsweater": 2566,
      "ien": 2567,
      "allow": 2568,
      "Ġpipe": 2569,
      "IL": 2570,
      "Ġcourse": 2571,
      "Ġshoe": 2572,
      "hill": 2573,
      "Ġpupp": 2574,
      "Ġducks": 2575,
      "Ġvest": 2576,
      "mpting": 2577,
      "Ġladies": 2578,
      "Ġglaz": 2579,
      "Ġgas": 2580,
      "Ġhangs": 2581,
      "Ġtrays": 2582,
      "Ġpickup": 2583,
      "OPLE": 2584,
      "shirt": 2585,
      "ĠView": 2586,
      "Ġbutter": 2587,
      "yclists": 2588,
      "ividual": 2589,
      "ushing": 2590,
      "ĠPEOPLE": 2591,
      "IG": 2592,
      "Ġgreens": 2593,
      "ĠBO": 2594,
      "Ġpulls": 2595,
      "Ġposted": 2596,
      "Ġeye": 2597,
      "Ġbare": 2598,
      "ory": 2599,
      "Ġwritten": 2600,
      "Ġmitt": 2601,
      "ior": 2602,
      "Ġcollection": 2603,
      "Ġdeli": 2604,
      "Ġbeverage": 2605,
      "ully": 2606,
      "Ġattempting": 2607,
      "Ġgrowing": 2608,
      "Ġcons": 2609,
      "pas": 2610,
      "Ġonly": 2611,
      "Ġstad": 2612,
      "Ġliqu": 2613,
      "Ġruns": 2614,
      "Ġcrosswalk": 2615,
      "ĠHe": 2616,
      "Ġexp": 2617,
      "Ġfreez": 2618,
      "Ġsemi": 2619,
      "omot": 2620,
      "boat": 2621,
      "Ġpres": 2622,
      "Ġpaint": 2623,
      "craft": 2624,
      "Ġeld": 2625,
      "ĠMot": 2626,
      "Ġpasses": 2627,
      "ĠHor": 2628,
      "Ġrolling": 2629,
      "Ġstadium": 2630,
      "case": 2631,
      "lled": 2632,
      "Ġclimb": 2633,
      "Ġtransp": 2634,
      "ĠZebras": 2635,
      "Ġindoor": 2636,
      "nel": 2637,
      "Ġ3": 2638,
      "Ġol": 2639,
      "ath": 2640,
      "rounding": 2641,
      "Ġtoast": 2642,
      "Ġsurrounding": 2643,
      "Ġfried": 2644,
      "cing": 2645,
      "Ġ1": 2646,
      "Ġlaugh": 2647,
      "Ġneatly": 2648,
      "Ġrelaxing": 2649,
      "ues": 2650,
      "ware": 2651,
      "als": 2652,
      "Ġstud": 2653,
      "Ġbending": 2654,
      "Ġcurled": 2655,
      "Ġornate": 2656,
      "Ġcal": 2657,
      "Ġcurtains": 2658,
      "gan": 2659,
      "ton": 2660,
      "Ġguit": 2661,
      "Ġchar": 2662,
      "Ġrope": 2663,
      "sted": 2664,
      "Ġfake": 2665,
      "Ġsupplies": 2666,
      "omotive": 2667,
      "ishing": 2668,
      "Ġbride": 2669,
      "ĠGirl": 2670,
      "ute": 2671,
      "Ġjets": 2672,
      "Ġlamps": 2673,
      "Ġmissing": 2674,
      "em": 2675,
      "Ġab": 2676,
      "Ġsiting": 2677,
      "Ġmicro": 2678,
      "Ġtops": 2679,
      "usk": 2680,
      "Ġaircraft": 2681,
      "Ġhandle": 2682,
      "Ġpatter": 2683,
      "Ġhappy": 2684,
      "Ġduck": 2685,
      "Ġsticks": 2686,
      "ĠTR": 2687,
      "rance": 2688,
      "Ġbunches": 2689,
      "Ġelderly": 2690,
      "Ġpotted": 2691,
      "eum": 2692,
      "ooked": 2693,
      "Ġwires": 2694,
      "CH": 2695,
      "Ġsim": 2696,
      "ĠAmer": 2697,
      "ĠIt": 2698,
      "Ġgoats": 2699,
      "Ġlife": 2700,
      "Ġpri": 2701,
      "Ġtool": 2702,
      "ctators": 2703,
      "Ġballs": 2704,
      "uffy": 2705,
      "ĠLooking": 2706,
      "ĠGu": 2707,
      "Ġwheels": 2708,
      "Ġfalling": 2709,
      "Ġframe": 2710,
      "Ġif": 2711,
      "Ġpor": 2712,
      "Ġsnack": 2713,
      "Ġmost": 2714,
      "Ġperforms": 2715,
      "Ġpaved": 2716,
      "Ġroses": 2717,
      "Ġbaskets": 2718,
      "Ġindividual": 2719,
      "Ġtail": 2720,
      "akers": 2721,
      "cake": 2722,
      "Ġwithout": 2723,
      "Ġtelephone": 2724,
      "Ġbell": 2725,
      "oral": 2726,
      "Ġroadway": 2727,
      "Ġpiled": 2728,
      "Ġgentle": 2729,
      "Ġhow": 2730,
      "Ġbookshel": 2731,
      "ERS": 2732,
      "lish": 2733,
      "Ġtoss": 2734,
      "Ġstool": 2735,
      "Ġcapt": 2736,
      "Ġwagon": 2737,
      "Ġspeed": 2738,
      "avy": 2739,
      "ID": 2740,
      "Ġdim": 2741,
      "cked": 2742,
      "Ġairliner": 2743,
      "Ġtax": 2744,
      "osite": 2745,
      "Ġlocomotive": 2746,
      "Ġsepar": 2747,
      "ots": 2748,
      "Ġadj": 2749,
      "Ġpacked": 2750,
      "Ġarrange": 2751,
      "Ġpracticing": 2752,
      "umer": 2753,
      "ured": 2754,
      "ĠCo": 2755,
      "Ġtalks": 2756,
      "Ġtiles": 2757,
      "bed": 2758,
      "fl": 2759,
      "Ġsection": 2760,
      "Ġjeans": 2761,
      "og": 2762,
      "Ġsold": 2763,
      "Ġfal": 2764,
      "ĠTW": 2765,
      "Ġmotion": 2766,
      "Ġhere": 2767,
      "Ġelectronics": 2768,
      "Ġsports": 2769,
      "Ġstunt": 2770,
      "Ġcelebr": 2771,
      "ĠMultiple": 2772,
      "ĠMotor": 2773,
      "Ġformation": 2774,
      "dd": 2775,
      "Ġaw": 2776,
      "Ġshallow": 2777,
      "redi": 2778,
      "ĠCom": 2779,
      "Ġcupboard": 2780,
      "ĠSheep": 2781,
      "Ġshoulder": 2782,
      "Ġsculpture": 2783,
      "Ġguitar": 2784,
      "Ġpet": 2785,
      "Ġflip": 2786,
      "ĠSU": 2787,
      "Ġalso": 2788,
      "Ġremo": 2789,
      "Ġarrangement": 2790,
      "EL": 2791,
      "Ġcycle": 2792,
      "Ġstar": 2793,
      "ooks": 2794,
      "Ġmirrors": 2795,
      "Ġglazed": 2796,
      "Ġsoft": 2797,
      "Ġshirtless": 2798,
      "Ġlandscape": 2799,
      "ĠElephant": 2800,
      "Ġtrol": 2801,
      "Ġflown": 2802,
      "risbe": 2803,
      "isement": 2804,
      "Ġselfie": 2805,
      "ipped": 2806,
      "Ġfloral": 2807,
      "Ġtoothbrushes": 2808,
      "Ġtong": 2809,
      "Ġgarbage": 2810,
      "Ġcovering": 2811,
      "redients": 2812,
      "end": 2813,
      "ĠSK": 2814,
      "Ġbucket": 2815,
      "Ġhors": 2816,
      "aged": 2817,
      "Ġmuseum": 2818,
      "ĠGiraffes": 2819,
      "Ġopposite": 2820,
      "Ġtoaster": 2821,
      "ĠChildren": 2822,
      "line": 2823,
      "Ġselling": 2824,
      "Ġpow": 2825,
      "ĠKit": 2826,
      "ĠTWO": 2827,
      "bow": 2828,
      "time": 2829,
      "ĠWe": 2830,
      "Ġspread": 2831,
      "Ġfreezer": 2832,
      "ountain": 2833,
      "Ġpine": 2834,
      "Ġfoc": 2835,
      "Ġsniff": 2836,
      "Ġtravels": 2837,
      "Ġjetliner": 2838,
      "ĠAmerican": 2839,
      "Ġholder": 2840,
      "ĠBen": 2841,
      "Ġexh": 2842,
      "Ġadvertisement": 2843,
      "Ġing": 2844,
      "cking": 2845,
      "cts": 2846,
      "Ġcones": 2847,
      "Ġpitching": 2848,
      "Ġpatch": 2849,
      "ABLE": 2850,
      "Ġcop": 2851,
      "asing": 2852,
      "Ġhits": 2853,
      "essor": 2854,
      "Ġtongue": 2855,
      "ging": 2856,
      "Ġfing": 2857,
      "Ġfast": 2858,
      "zza": 2859,
      "Ġsprinkles": 2860,
      "Ġfir": 2861,
      "abit": 2862,
      "eback": 2863,
      "Ġparas": 2864,
      "Ġdead": 2865,
      "ĠAdult": 2866,
      "ĠGuy": 2867,
      "ater": 2868,
      "Ġasleep": 2869,
      "Ġobjects": 2870,
      "Ġfallen": 2871,
      "UT": 2872,
      "Ġpushing": 2873,
      "ways": 2874,
      "Ġhorseback": 2875,
      "GE": 2876,
      "Ġicing": 2877,
      "Ġinst": 2878,
      "Ġstuck": 2879,
      "ĠBig": 2880,
      "Ġheadphones": 2881,
      "Ġcorn": 2882,
      "Ġblankets": 2883,
      "ancing": 2884,
      "Ġke": 2885,
      "umin": 2886,
      "Ġbank": 2887,
      "Ġimages": 2888,
      "Ġhotdogs": 2889,
      "Ġcompetition": 2890,
      "Ġmuff": 2891,
      "icious": 2892,
      "ĠLit": 2893,
      "ACK": 2894,
      "Ġingredients": 2895,
      "Ġbuff": 2896,
      "Ġpictured": 2897,
      "ARD": 2898,
      "Ġhabit": 2899,
      "Ġmarble": 2900,
      "Ġhomemade": 2901,
      "Ġcounters": 2902,
      "Ġfaces": 2903,
      "Ġvisible": 2904,
      "\".": 2905,
      "ake": 2906,
      "Ġhum": 2907,
      "Ġskirt": 2908,
      "Ġmotorb": 2909,
      "Ġnewsp": 2910,
      "ĠDog": 2911,
      "Ġpedestrian": 2912,
      "Ġpuppy": 2913,
      "ids": 2914,
      "usted": 2915,
      "aming": 2916,
      "Ġfluffy": 2917,
      "ĠPic": 2918,
      "Ġstoplight": 2919,
      "Ġcoll": 2920,
      "Ġdownhill": 2921,
      "ĠSIT": 2922,
      "ĠSurf": 2923,
      "Ġcheckered": 2924,
      "Ġmop": 2925,
      "Ġstring": 2926,
      "ĠCows": 2927,
      "ĠRo": 2928,
      "Ġrolls": 2929,
      "Ġstrawberries": 2930,
      "Ġclimbing": 2931,
      "Ġreaches": 2932,
      "Ġwears": 2933,
      "Ġitem": 2934,
      "Ġentrance": 2935,
      "OL": 2936,
      "cycle": 2937,
      "fully": 2938,
      "Ġfrosted": 2939,
      "pple": 2940,
      "Ġfeaturing": 2941,
      "Ġhabitat": 2942,
      "ount": 2943,
      "Ġballoon": 2944,
      "Ġcupcakes": 2945,
      "Ġda": 2946,
      "Ġneon": 2947,
      "ĠBE": 2948,
      "Ġshirts": 2949,
      "ĠSTRE": 2950,
      "now": 2951,
      "Ġcer": 2952,
      "ising": 2953,
      "ATE": 2954,
      "ked": 2955,
      "Ġtab": 2956,
      "Ġfin": 2957,
      "Ġrep": 2958,
      "Ġmoves": 2959,
      "Ġwhole": 2960,
      "bbing": 2961,
      "Ġgathering": 2962,
      "ĠSTREET": 2963,
      "lit": 2964,
      "Ġpouring": 2965,
      "Ġleap": 2966,
      "ondon": 2967,
      "ĠLittle": 2968,
      "oned": 2969,
      "Ġcarries": 2970,
      "Ġrange": 2971,
      "Ġbit": 2972,
      "rot": 2973,
      "Ġang": 2974,
      "Ġchil": 2975,
      "Ġphotograp": 2976,
      "Ġmixed": 2977,
      "ĠPLAY": 2978,
      "Ġrows": 2979,
      "Ġstickers": 2980,
      "Ġmagn": 2981,
      "Ġfeeder": 2982,
      "Ġmicrophone": 2983,
      "ished": 2984,
      "Ġcovers": 2985,
      "Ġobser": 2986,
      "Ġofficers": 2987,
      "Ġname": 2988,
      "amp": 2989,
      "asty": 2990,
      "Ġorgan": 2991,
      "Ġnapkin": 2992,
      "Ġtransport": 2993,
      "Ġfocus": 2994,
      "Ġfurnis": 2995,
      "Ġolives": 2996,
      "Ġdump": 2997,
      "ĠTo": 2998,
      "eboard": 2999,
      "Ġbatting": 3000,
      "ĠSITTING": 3001,
      "orter": 3002,
      "Ġshiny": 3003,
      "Ġbacks": 3004,
      "Ġcondim": 3005,
      "oming": 3006,
      "Ġhaired": 3007,
      "ĠPicture": 3008,
      "ders": 3009,
      "Ġgravel": 3010,
      "Ġslopes": 3011,
      "ĠTraffic": 3012,
      "Ġexhib": 3013,
      "Ġfan": 3014,
      "Ġfar": 3015,
      "Ġloung": 3016,
      "ĠSnow": 3017,
      "Ġblowing": 3018,
      "Ġskateboarders": 3019,
      "Ġaut": 3020,
      "Ġwing": 3021,
      "Ġlab": 3022,
      "Ġconne": 3023,
      "ĠBus": 3024,
      "boy": 3025,
      "Ġenjoy": 3026,
      "ĠBlue": 3027,
      "dling": 3028,
      "ĠPi": 3029,
      "Ġhills": 3030,
      "Ġrainbow": 3031,
      "Ġbasketball": 3032,
      "Ġblonde": 3033,
      "uzz": 3034,
      "Ġshadow": 3035,
      "Ġcookies": 3036,
      "Ġfigur": 3037,
      "Ġtun": 3038,
      "Ġcargo": 3039,
      "Ġopening": 3040,
      "Ġliquid": 3041,
      "wood": 3042,
      "Ġfountain": 3043,
      "Ġlighting": 3044,
      "right": 3045,
      "iled": 3046,
      "ental": 3047,
      "Ġcleaning": 3048,
      "Ġchecking": 3049,
      "Ġjar": 3050,
      "ĠTHIS": 3051,
      "Ġcontrols": 3052,
      "Ġbul": 3053,
      "ĠThese": 3054,
      "Ġcomple": 3055,
      "Ġpotato": 3056,
      "Ġspectators": 3057,
      "Ġindic": 3058,
      "Ġlaughing": 3059,
      "Ġahead": 3060,
      "ĠTen": 3061,
      "Ġshru": 3062,
      "Ġblow": 3063,
      "ĠCol": 3064,
      "Ġsnowboarders": 3065,
      "Ġdelicious": 3066,
      "Ġcardboard": 3067,
      "Ġaud": 3068,
      "Ġnumer": 3069,
      "rial": 3070,
      "ugging": 3071,
      "Ġturning": 3072,
      "Ġshape": 3073,
      "Ġdesserts": 3074,
      "Ġexten": 3075,
      "Ġprin": 3076,
      "ience": 3077,
      "Ġfirst": 3078,
      "UN": 3079,
      "Ġbeef": 3080,
      "ĠWH": 3081,
      "Ġhamb": 3082,
      "vy": 3083,
      "Ġfrisbe": 3084,
      "Ġthin": 3085,
      "Ġeven": 3086,
      "Ġtrav": 3087,
      "Ġgreat": 3088,
      "Ġgolden": 3089,
      "ited": 3090,
      "Ġbur": 3091,
      "Ġsomeones": 3092,
      "Ġarch": 3093,
      "Ġbooth": 3094,
      "Ġbookshelf": 3095,
      "'t": 3096,
      "rit": 3097,
      "Ġyou": 3098,
      "Ġcatches": 3099,
      "ĠOn": 3100,
      "ĠGreen": 3101,
      "Ġproc": 3102,
      "Ġfoil": 3103,
      "Ġcondiments": 3104,
      "py": 3105,
      "was": 3106,
      "Ġpige": 3107,
      "Ġdisplays": 3108,
      "ĠLondon": 3109,
      "Ġlocated": 3110,
      "Ġmuddy": 3111,
      "Ġtools": 3112,
      "Ġsug": 3113,
      "ront": 3114,
      "Ġflooring": 3115,
      "Ġsaf": 3116,
      "Ġclay": 3117,
      "Ġentertain": 3118,
      "Ġrusty": 3119,
      "ĠRE": 3120,
      "Ġfishing": 3121,
      "Ġplaid": 3122,
      "Ġherself": 3123,
      "Ġcountertop": 3124,
      "Ġtrolley": 3125,
      "Ġnewspaper": 3126,
      "Ġtabby": 3127,
      "Ġexhibit": 3128,
      "Ġtravelling": 3129,
      "Ġtire": 3130,
      "Ġsad": 3131,
      "stri": 3132,
      "ently": 3133,
      "Ġgoat": 3134,
      "Ġseats": 3135,
      "iet": 3136,
      "Ġcust": 3137,
      "erries": 3138,
      "amic": 3139,
      "Ġcarts": 3140,
      "Ġpickle": 3141,
      "Ġworkers": 3142,
      "Ġminiature": 3143,
      "Ġcran": 3144,
      "Ġlar": 3145,
      "Ġforward": 3146,
      "Ġalley": 3147,
      "ustrial": 3148,
      "ĠStop": 3149,
      "ĠGiraffe": 3150,
      "Ġdepic": 3151,
      "ĠBrown": 3152,
      "Ġspin": 3153,
      "ague": 3154,
      "olded": 3155,
      "ither": 3156,
      "Ġpin": 3157,
      "Ġbou": 3158,
      "Ġbent": 3159,
      "Ġrusted": 3160,
      "Ġmobile": 3161,
      "Ġcowboy": 3162,
      "Ġunmade": 3163,
      "Ġcere": 3164,
      "spital": 3165,
      "ockey": 3166,
      "anta": 3167,
      "Ġbunk": 3168,
      "Ġbak": 3169,
      "thy": 3170,
      "Ġbalc": 3171,
      "Ġhallway": 3172,
      "ĠPizza": 3173,
      "Ġsus": 3174,
      "Ġbrushes": 3175,
      "ĠTABLE": 3176,
      "Ġeither": 3177,
      "Ġattire": 3178,
      "Ġgloves": 3179,
      "Ġden": 3180,
      "Ġthrown": 3181,
      "Ġalm": 3182,
      "Ġchees": 3183,
      "Ġmeadow": 3184,
      "Ġcomforter": 3185,
      "ĠTennis": 3186,
      "washer": 3187,
      "URE": 3188,
      "eting": 3189,
      "ried": 3190,
      "Ġsec": 3191,
      "Ġgrilled": 3192,
      "Ġindustrial": 3193,
      "ĠSkat": 3194,
      "Ġaccessor": 3195,
      "brary": 3196,
      "Ġsyst": 3197,
      "men": 3198,
      "van": 3199,
      "Ġic": 3200,
      "ables": 3201,
      "Ġsharing": 3202,
      "ĠSh": 3203,
      "Ġrad": 3204,
      "Ġspray": 3205,
      "Ġhelping": 3206,
      "Ġposed": 3207,
      "Ġsize": 3208,
      "look": 3209,
      "Ġcalm": 3210,
      "Ġstir": 3211,
      "Ġstage": 3212,
      "icolored": 3213,
      "Ġcafe": 3214,
      "ĠFood": 3215,
      "Ġdishwasher": 3216,
      "Ġcrust": 3217,
      "Ġsteeple": 3218,
      "Ġaccessories": 3219,
      "here": 3220,
      "erry": 3221,
      "Ġstares": 3222,
      "Ġfollowing": 3223,
      "Ġill": 3224,
      "Ġbiting": 3225,
      "Ġnic": 3226,
      "Ġseems": 3227,
      "Ġwings": 3228,
      "attered": 3229,
      "Ġlif": 3230,
      "ĠBan": 3231,
      "Ġdriver": 3232,
      "Ġsleeps": 3233,
      "decker": 3234,
      "Ġmagaz": 3235,
      "tress": 3236,
      "Ġneigh": 3237,
      "Ġcliff": 3238,
      "Ġhospital": 3239,
      "Ġceramic": 3240,
      "Ġodd": 3241,
      "arf": 3242,
      "Ġchest": 3243,
      "Ġwords": 3244,
      "Ġcountryside": 3245,
      "ĠSTAN": 3246,
      "Ġinterior": 3247,
      "town": 3248,
      "inese": 3249,
      "Ġown": 3250,
      "Ġcalf": 3251,
      "ITE": 3252,
      "ĠUn": 3253,
      "Ġchili": 3254,
      "Ġcustom": 3255,
      "FF": 3256,
      "mpt": 3257,
      "Ġwatering": 3258,
      "Ġmore": 3259,
      "Ġteenag": 3260,
      "Ġalmost": 3261,
      "ĠSkateboard": 3262,
      "hood": 3263,
      "Ġlane": 3264,
      "Ġgrapes": 3265,
      "Ġchasing": 3266,
      "Ġseries": 3267,
      "Ġsteak": 3268,
      "Ġpicking": 3269,
      "od": 3270,
      "Ġsix": 3271,
      "Ġbaking": 3272,
      "Ġgroc": 3273,
      "Ġtaxi": 3274,
      "Ġtasty": 3275,
      "Ġburger": 3276,
      "Ġhugging": 3277,
      "Ġheading": 3278,
      "ĠBL": 3279,
      "ĠFl": 3280,
      "ĠIT": 3281,
      "Ġbagg": 3282,
      "ĠTrain": 3283,
      "Ġpaws": 3284,
      "Ġneighbor": 3285,
      "work": 3286,
      "Ġband": 3287,
      "ushion": 3288,
      "Ġdesigned": 3289,
      "Ġbalcony": 3290,
      "Ġado": 3291,
      "Ġmans": 3292,
      "Ġjumb": 3293,
      "ĠWOM": 3294,
      "Ġapron": 3295,
      "ĠMotorcycle": 3296,
      "Ġsystem": 3297,
      ".\"": 3298,
      "ew": 3299,
      "gress": 3300,
      "Ġgaz": 3301,
      "Ġlibrary": 3302,
      "ĠBU": 3303,
      "ĠBe": 3304,
      "ĠCH": 3305,
      "Ġamongst": 3306,
      "Ġmostly": 3307,
      "car": 3308,
      "ker": 3309,
      "Ġsle": 3310,
      "Ġcushion": 3311,
      "Ġcoach": 3312,
      "Ġjockey": 3313,
      "Ġhorns": 3314,
      "Ġheart": 3315,
      "Ġmarina": 3316,
      "Ġteams": 3317,
      "ĠHorses": 3318,
      "Ġsuspen": 3319,
      "ral": 3320,
      "Ġtas": 3321,
      "Ġnat": 3322,
      "Ġjo": 3323,
      "Ġcanop": 3324,
      "Ġmattress": 3325,
      "Ġmulticolored": 3326,
      "Ġbouquet": 3327,
      "Ġnicely": 3328,
      "bble": 3329,
      "ux": 3330,
      "Ġaerial": 3331,
      "allic": 3332,
      "stand": 3333,
      "ctive": 3334,
      "Ġmatching": 3335,
      "gged": 3336,
      "Ġgentleman": 3337,
      "AD": 3338,
      "AM": 3339,
      "zen": 3340,
      "Ġdig": 3341,
      "ility": 3342,
      "ument": 3343,
      "Ġcuts": 3344,
      "Ġpancakes": 3345,
      "Ġiron": 3346,
      "ĠPLAYING": 3347,
      "Ġlarger": 3348,
      "ĠBanan": 3349,
      "isting": 3350,
      "ĠBath": 3351,
      "ĠYellow": 3352,
      "Ġstraight": 3353,
      "Ġsniffing": 3354,
      "Ġav": 3355,
      "ano": 3356,
      "andoned": 3357,
      "Ġvol": 3358,
      "Ġcomb": 3359,
      "Ġarrow": 3360,
      "Ġleaving": 3361,
      "Ġfunny": 3362,
      "Ġtunnel": 3363,
      "Ġribb": 3364,
      "ĠDO": 3365,
      "Ġdryer": 3366,
      "Ġcollar": 3367,
      "Ġneighborhood": 3368,
      "ere": 3369,
      "Ġcig": 3370,
      "rage": 3371,
      "Ġread": 3372,
      "ĠPIC": 3373,
      "Ġtrunks": 3374,
      "Ġmask": 3375,
      "Ġowner": 3376,
      "Ġsugar": 3377,
      "Ġbill": 3378,
      "ord": 3379,
      "Ġconvers": 3380,
      "Ġprepare": 3381,
      "ĠBathroom": 3382,
      "TURE": 3383,
      "owers": 3384,
      "ette": 3385,
      "Ġevery": 3386,
      "Ġfixt": 3387,
      "Ġmetallic": 3388,
      "Ġhose": 3389,
      "ĠCloseup": 3390,
      "ĠElephants": 3391,
      "Ġbra": 3392,
      "Ġonlook": 3393,
      "Ġlemon": 3394,
      "Ġtyping": 3395,
      "ASS": 3396,
      "Ġadvertising": 3397,
      "Ġbuffet": 3398,
      "Ġhamburger": 3399,
      "Ġbaggage": 3400,
      "Ġjumbo": 3401,
      "AIN": 3402,
      "ters": 3403,
      "Ġcru": 3404,
      "Ġstory": 3405,
      "Ġbeg": 3406,
      "quets": 3407,
      "Ġchewing": 3408,
      "Ġrailway": 3409,
      "Ġattempt": 3410,
      "IDE": 3411,
      "sel": 3412,
      "Ġtin": 3413,
      "Ġdusk": 3414,
      "ĠLOT": 3415,
      "Ġtries": 3416,
      "Ġworks": 3417,
      "Ġstatues": 3418,
      "Ġsets": 3419,
      "olf": 3420,
      "use": 3421,
      "Ġtractor": 3422,
      "Ġwashing": 3423,
      "Ġdriveway": 3424,
      "Ġabandoned": 3425,
      "Ġbakery": 3426,
      "Ġnatural": 3427,
      "Ġwarm": 3428,
      "ersey": 3429,
      "Ġthick": 3430,
      "hers": 3431,
      "ĠCar": 3432,
      "Ġmove": 3433,
      "Ġresort": 3434,
      "Ġposter": 3435,
      "Ġmotorbike": 3436,
      "NT": 3437,
      "Ġcool": 3438,
      "ption": 3439,
      "Ġweather": 3440,
      "Ġwinds": 3441,
      "ĠVe": 3442,
      "Ġfreshly": 3443,
      "Ġtwin": 3444,
      "Ġcases": 3445,
      "Ġjersey": 3446,
      "Ġcold": 3447,
      "ĠSkiers": 3448,
      "Ġaudience": 3449,
      "aks": 3450,
      "Ġlim": 3451,
      "Ġstrol": 3452,
      "Ġshining": 3453,
      "Ġheavy": 3454,
      "Ġforeign": 3455,
      "Ġrails": 3456,
      "Ġboots": 3457,
      "Ġhelm": 3458,
      "Ġcircular": 3459,
      "Ġentertainment": 3460,
      "Ġhung": 3461,
      "Ġprote": 3462,
      "Ġbars": 3463,
      "Ġcandy": 3464,
      "Ġdevices": 3465,
      "Ġformal": 3466,
      "Ġdimly": 3467,
      "Ġconnected": 3468,
      "Ġpony": 3469,
      "Ġrose": 3470,
      "Ġpara": 3471,
      "Ġlighthouse": 3472,
      "Ġprogress": 3473,
      "aret": 3474,
      "Ġorganized": 3475,
      "ĠWOMAN": 3476,
      "front": 3477,
      "ipping": 3478,
      "Ġris": 3479,
      "Ġfolded": 3480,
      "rable": 3481,
      "illa": 3482,
      "Ġdowntown": 3483,
      "Ġvend": 3484,
      "ĠPH": 3485,
      "ival": 3486,
      "Ġgrand": 3487,
      "Ġframed": 3488,
      "Ġcupboards": 3489,
      "Ġcigaret": 3490,
      "ightly": 3491,
      "Ġpropped": 3492,
      "Ġmagnets": 3493,
      "Ġhelmets": 3494,
      "irds": 3495,
      "ĠSix": 3496,
      "Ġdispen": 3497,
      "Ġmass": 3498,
      "Ġhiding": 3499,
      "Ġtor": 3500,
      "Ġleague": 3501,
      "Ġturkey": 3502,
      "Ġpop": 3503,
      "Ġbusses": 3504,
      "Ġcupcake": 3505,
      "Ġracquets": 3506,
      "Ġserv": 3507,
      "Ġtossing": 3508,
      "Ġfinger": 3509,
      "coming": 3510,
      "Ġnintendo": 3511,
      "Ġtablet": 3512,
      "Ġlevel": 3513,
      "ĠWomen": 3514,
      "Ġobst": 3515,
      "dered": 3516,
      "Ġworker": 3517,
      "ĠPICTURE": 3518,
      "oe": 3519,
      "Ġmain": 3520,
      "alley": 3521,
      "Ġupon": 3522,
      "Ġbackyard": 3523,
      "ĠBro": 3524,
      "Ġring": 3525,
      "Ġsailboat": 3526,
      "Ġquiet": 3527,
      "Ġlounging": 3528,
      "inds": 3529,
      "Ġreflected": 3530,
      "ĠSTANDING": 3531,
      "Ġcanopy": 3532,
      "Ġobstac": 3533,
      "CK": 3534,
      "Ġfather": 3535,
      "chair": 3536,
      "Ġparrot": 3537,
      "Ġsunlight": 3538,
      "Ġcontents": 3539,
      "Ġraised": 3540,
      "Ġporch": 3541,
      "Ġadorable": 3542,
      "ls": 3543,
      "zy": 3544,
      "Ġsu": 3545,
      "Ġfab": 3546,
      "Ġdot": 3547,
      "ades": 3548,
      "Ġpiano": 3549,
      "Ġdesc": 3550,
      "Ġunus": 3551,
      "Ġbelt": 3552,
      "Ġchopped": 3553,
      "Ġillumin": 3554,
      "med": 3555,
      "Ġears": 3556,
      "Ġscarf": 3557,
      "Ġmales": 3558,
      "vely": 3559,
      "Ġunc": 3560,
      "Ġbesides": 3561,
      "ggy": 3562,
      "Ġwilder": 3563,
      "Ġbearded": 3564,
      "Ġcastle": 3565,
      "ĠColor": 3566,
      "vated": 3567,
      "Ġson": 3568,
      "ĠAss": 3569,
      "Ġsha": 3570,
      "Ġflood": 3571,
      "Ġpoint": 3572,
      "Ġlicking": 3573,
      "ĠBAT": 3574,
      "Ġadjus": 3575,
      "Ġevening": 3576,
      "Ġpump": 3577,
      "Ġfans": 3578,
      "Ġgran": 3579,
      "Ġskiis": 3580,
      "Ġmotorcyclist": 3581,
      "boats": 3582,
      "angu": 3583,
      "Ġstorage": 3584,
      "istic": 3585,
      "eled": 3586,
      "Ġshut": 3587,
      "ĠPol": 3588,
      "Ġgrazes": 3589,
      "Ġbarrel": 3590,
      "Ġsilverware": 3591,
      "Ġhardwood": 3592,
      "Ġseagulls": 3593,
      "ĠWHITE": 3594,
      "ider": 3595,
      "ĠSH": 3596,
      "Ġscattered": 3597,
      "Ġdaytime": 3598,
      "Ġsaying": 3599,
      "ĠHot": 3600,
      "ĠNE": 3601,
      "Ġgrocery": 3602,
      "Ġwilderness": 3603,
      "colored": 3604,
      "gy": 3605,
      "Ġ4": 3606,
      "Ġoper": 3607,
      "Ġfurry": 3608,
      "Ġgolf": 3609,
      "Ġlangu": 3610,
      "Ġlear": 3611,
      "Ġguard": 3612,
      "Ġcrosses": 3613,
      "Ġorder": 3614,
      "ĠChinese": 3615,
      "Ġseparate": 3616,
      "Ġonlookers": 3617,
      "ĠAssort": 3618,
      "Ġbund": 3619,
      "ĠPAR": 3620,
      "ĠWI": 3621,
      "Ġmonkey": 3622,
      "Ġsquat": 3623,
      "Ġlambs": 3624,
      "Ġpresent": 3625,
      "Ġspinach": 3626,
      "Ġbay": 3627,
      "ending": 3628,
      "Ġshaking": 3629,
      "Ġbalancing": 3630,
      "Ġfabric": 3631,
      "my": 3632,
      "Ġbats": 3633,
      "ĠBirds": 3634,
      "Ġword": 3635,
      "Ġprodu": 3636,
      "Ġstretching": 3637,
      "mons": 3638,
      "tru": 3639,
      "Ġsla": 3640,
      "Ġple": 3641,
      "ĠRO": 3642,
      "Ġstrip": 3643,
      "Ġcookie": 3644,
      "ka": 3645,
      "outh": 3646,
      "tor": 3647,
      "Ġcollage": 3648,
      "Ġgogg": 3649,
      "Ġlogs": 3650,
      "Ġsmoking": 3651,
      "Ġbikers": 3652,
      "Ġbikini": 3653,
      "Ġpeeking": 3654,
      "SE": 3655,
      "arp": 3656,
      "Ġmom": 3657,
      "ests": 3658,
      "ass": 3659,
      "ounge": 3660,
      "aker": 3661,
      "Ġamount": 3662,
      "Ġfootball": 3663,
      "Ġfauc": 3664,
      "ungle": 3665,
      "Ġcomfort": 3666,
      "Ġsizes": 3667,
      "ma": 3668,
      "Ġdust": 3669,
      "Ġthumb": 3670,
      "Ġplayed": 3671,
      "Ġjungle": 3672,
      "Ġintere": 3673,
      "Ġsavan": 3674,
      "Ġdrawers": 3675,
      "Ġbalan": 3676,
      "Ġawa": 3677,
      "ĠColorful": 3678,
      "Ġtalk": 3679,
      "anger": 3680,
      "althy": 3681,
      "Ġasian": 3682,
      "Ġtag": 3683,
      "Ġswe": 3684,
      "Ġclutter": 3685,
      "ĠInd": 3686,
      "Ġleafy": 3687,
      "Ġsuspended": 3688,
      "Ġgoggles": 3689,
      "LO": 3690,
      "Ġlemons": 3691,
      "uffed": 3692,
      "Ġscreens": 3693,
      "Ġfriend": 3694,
      "Ġmusic": 3695,
      "Ġcircle": 3696,
      "plane": 3697,
      "Ġwarning": 3698,
      "Ġmoped": 3699,
      "Ġvolley": 3700,
      "selves": 3701,
      "where": 3702,
      "Ġrec": 3703,
      "Ġunique": 3704,
      "uddle": 3705,
      "Ġdelivery": 3706,
      "Ġsafety": 3707,
      "Ġel": 3708,
      "Ġhi": 3709,
      "Ġge": 3710,
      "unk": 3711,
      "ided": 3712,
      "Ġrece": 3713,
      "Ġparach": 3714,
      "ĠCity": 3715,
      "Ġthemselves": 3716,
      "Ġdecoration": 3717,
      "Ġladder": 3718,
      "Ġindoors": 3719,
      "ĠKitchen": 3720,
      "Ġmagazine": 3721,
      "Ġcigarette": 3722,
      "Ġmel": 3723,
      "illing": 3724,
      "pper": 3725,
      "Ġador": 3726,
      "Ġpean": 3727,
      "Ġterra": 3728,
      "Ġsimple": 3729,
      "ĠWII": 3730,
      "ole": 3731,
      "Ġfixing": 3732,
      "anda": 3733,
      "Ġsne": 3734,
      "ĠFre": 3735,
      "ooters": 3736,
      "Ġchefs": 3737,
      "Ġribbon": 3738,
      "iving": 3739,
      "rat": 3740,
      "ret": 3741,
      "Ġfair": 3742,
      "Ġfighting": 3743,
      "rib": 3744,
      "Ġware": 3745,
      "lers": 3746,
      "Ġpickles": 3747,
      "Ġpeeled": 3748,
      "Ġfrisbees": 3749,
      "Ġsavanna": 3750,
      "dled": 3751,
      "Ġnuts": 3752,
      "ĠSkateboarder": 3753,
      "Ġtus": 3754,
      "Ġwo": 3755,
      "Ġthan": 3756,
      "Ġreally": 3757,
      "Ġplan": 3758,
      "Ġsurfs": 3759,
      "Ġcourtyard": 3760,
      "ĠGR": 3761,
      "Ġfreight": 3762,
      "ASE": 3763,
      "Ġfigure": 3764,
      "Ġmuffin": 3765,
      "its": 3766,
      "owed": 3767,
      "Ġskin": 3768,
      "ĠSc": 3769,
      "reline": 3770,
      "Ġcellphones": 3771,
      "Ġtowering": 3772,
      "Ġcomplete": 3773,
      "Ġcrane": 3774,
      "Ġcher": 3775,
      "Ġlounge": 3776,
      "Ġstorm": 3777,
      "ilt": 3778,
      "Ġlean": 3779,
      "Ġshoreline": 3780,
      "Ġclassroom": 3781,
      "paste": 3782,
      "KE": 3783,
      "hol": 3784,
      "uri": 3785,
      "Ġbin": 3786,
      "Ġwash": 3787,
      "att": 3788,
      "Ġfest": 3789,
      "Ġlink": 3790,
      "orting": 3791,
      "Ġneed": 3792,
      "ĠPla": 3793,
      "Ġgoal": 3794,
      "Ġload": 3795,
      "ĠDi": 3796,
      "Ġphotographs": 3797,
      "Ġcloset": 3798,
      "Ġconsisting": 3799,
      "Ġballoons": 3800,
      "Ġfurnished": 3801,
      "Ġcereal": 3802,
      "Ġscooters": 3803,
      "Ġstops": 3804,
      "Ġvegetation": 3805,
      "ĠDe": 3806,
      "ĠHOL": 3807,
      "Ġbarri": 3808,
      "ĠEng": 3809,
      "Ġsticker": 3810,
      "ĠBroccoli": 3811,
      "ze": 3812,
      "ĠCOU": 3813,
      "Ġtrim": 3814,
      "ĠBoats": 3815,
      "Ġobstacle": 3816,
      "af": 3817,
      "ha": 3818,
      "Ġcone": 3819,
      "ĠWAT": 3820,
      "Ġbuns": 3821,
      "Ġsoap": 3822,
      "Ġpairs": 3823,
      "Ġcanoe": 3824,
      "Ġshops": 3825,
      "Ġpoints": 3826,
      "Ġbeverages": 3827,
      "pass": 3828,
      "Ġprocess": 3829,
      "ĠBananas": 3830,
      "Ġtusks": 3831,
      "ĠApple": 3832,
      "Ġinf": 3833,
      "Ġkitty": 3834,
      "Ġcomes": 3835,
      "Ġwear": 3836,
      "Ġfoggy": 3837,
      "covered": 3838,
      "gu": 3839,
      "Ġslightly": 3840,
      "Ġproject": 3841,
      "ĠDOG": 3842,
      "LL": 3843,
      "hou": 3844,
      "Ġstr": 3845,
      "rimp": 3846,
      "Ġdesigns": 3847,
      "wards": 3848,
      "Ġrustic": 3849,
      "Ġsoftball": 3850,
      "gie": 3851,
      "xes": 3852,
      "Ġputs": 3853,
      "riental": 3854,
      "Ġarena": 3855,
      "ĠPar": 3856,
      "Ġhealthy": 3857,
      "Ġheaded": 3858,
      "Ġarri": 3859,
      "Ġhaul": 3860,
      "Ġspeakers": 3861,
      "Ġgrin": 3862,
      "ti": 3863,
      "ws": 3864,
      "Ġburn": 3865,
      "Ġberries": 3866,
      "Ġath": 3867,
      "Ġreg": 3868,
      "oney": 3869,
      "Ġbedsp": 3870,
      "ĠPh": 3871,
      "Ġskyline": 3872,
      "ifl": 3873,
      "Ġlob": 3874,
      "Ġmeeting": 3875,
      "ANT": 3876,
      "Ġpedestal": 3877,
      "Ġpositioned": 3878,
      "ĠBOARD": 3879,
      "tie": 3880,
      "za": 3881,
      "Ġthese": 3882,
      "Ġfat": 3883,
      "raying": 3884,
      "ĠSM": 3885,
      "Ġbathing": 3886,
      "ĠPERS": 3887,
      "Ġcare": 3888,
      "Ġwading": 3889,
      "Ġspac": 3890,
      "Ġknit": 3891,
      "Ġslicing": 3892,
      "Ġtoothpaste": 3893,
      "Ġnoteb": 3894,
      "Ġapproaches": 3895,
      "Ġobserving": 3896,
      "Ġfixtures": 3897,
      "Ġdispenser": 3898,
      "ta": 3899,
      "Ġstrange": 3900,
      "illage": 3901,
      "Ġconve": 3902,
      "Ġpaddling": 3903,
      "iflower": 3904,
      "ĠPERSON": 3905,
      "uro": 3906,
      "Ġact": 3907,
      "Ġbugg": 3908,
      "Ġmall": 3909,
      "Ġtoo": 3910,
      "Ġtho": 3911,
      "Ġbeak": 3912,
      "Ġgrabbing": 3913,
      "Ġvalley": 3914,
      "ĠSanta": 3915,
      "Ġsideways": 3916,
      "Ġwaterway": 3917,
      "Ġcrossed": 3918,
      "Ġmaterial": 3919,
      "AND": 3920,
      "Ġpeace": 3921,
      "Ġcatchers": 3922,
      "ROOM": 3923,
      "Ġfed": 3924,
      "ĠTeddy": 3925,
      "Ġvillage": 3926,
      "uliflower": 3927,
      "ĠKids": 3928,
      "Ġwand": 3929,
      "Ġcans": 3930,
      "ope": 3931,
      "Ġreach": 3932,
      "ebo": 3933,
      "Ġshrimp": 3934,
      "ama": 3935,
      "ĠPair": 3936,
      "Ġreflecting": 3937,
      "IGH": 3938,
      "Ġleaping": 3939,
      "Ġattempts": 3940,
      "Ġfaucet": 3941,
      "shing": 3942,
      "ĠTe": 3943,
      "oose": 3944,
      "icle": 3945,
      "Ġcaught": 3946,
      "ĠFR": 3947,
      "Ġspla": 3948,
      "Ġpigeons": 3949,
      "Ġilluminated": 3950,
      "ĠFresh": 3951,
      "Ġtrough": 3952,
      "Ġlis": 3953,
      "Ġpens": 3954,
      "ALKING": 3955,
      "ĠDifferent": 3956,
      "ĠHOLDING": 3957,
      "ĊĊ": 3958,
      "icop": 3959,
      "Ġdesks": 3960,
      "ĠThat": 3961,
      "Ġalco": 3962,
      "ĠCan": 3963,
      "ĠHIS": 3964,
      "Ġnumbers": 3965,
      "Ġdirect": 3966,
      "ucumb": 3967,
      "Ġsnacks": 3968,
      "ĠSnowboard": 3969,
      "gant": 3970,
      "Ġtight": 3971,
      "ĠAf": 3972,
      "Ġfol": 3973,
      "alt": 3974,
      "unches": 3975,
      "Ġwaving": 3976,
      "rence": 3977,
      "Ġgoods": 3978,
      "ĠPlate": 3979,
      "OOD": 3980,
      "Ġkeep": 3981,
      "Ġrepair": 3982,
      "Ġvendor": 3983,
      "ĠBATH": 3984,
      "Ġbedspread": 3985,
      "ined": 3986,
      "Ġwre": 3987,
      "Ġcucumb": 3988,
      "Ġany": 3989,
      "Ġdet": 3990,
      "Ġleads": 3991,
      "Ġconfe": 3992,
      "ift": 3993,
      "Ġhelicop": 3994,
      "Ġexc": 3995,
      "Ġpatterned": 3996,
      "Ġconversation": 3997,
      "Ġservice": 3998,
      "white": 3999,
      "Ġkay": 4000,
      "Ġraft": 4001,
      "Ġforks": 4002,
      "Ġherding": 4003,
      "ĠGIR": 4004,
      "Ġknives": 4005,
      "toon": 4006,
      "Ġexam": 4007,
      "Ġlayer": 4008,
      "Ġbutton": 4009,
      "Ġgranite": 4010,
      "urope": 4011,
      "Ġkis": 4012,
      "Ġfully": 4013,
      "Ġflooded": 4014,
      "urious": 4015,
      "Ġ,": 4016,
      "Ġtrop": 4017,
      "Ġpanda": 4018,
      "Ġcobble": 4019,
      "Ġplaza": 4020,
      "Ġcauliflower": 4021,
      "Ġtags": 4022,
      "Ġclus": 4023,
      "Ġdrawing": 4024,
      "OTO": 4025,
      "ĠCouple": 4026,
      "ĠComm": 4027,
      "Ġslee": 4028,
      "ula": 4029,
      "Ġmuch": 4030,
      "Ġhad": 4031,
      "ĠSign": 4032,
      "Ġslow": 4033,
      "ĠMo": 4034,
      "ĠFrench": 4035,
      "ACH": 4036,
      "Ġsecond": 4037,
      "Ġterrain": 4038,
      "Ġins": 4039,
      "rots": 4040,
      "amond": 4041,
      "Ġlighted": 4042,
      "ific": 4043,
      "Ġdried": 4044,
      "icker": 4045,
      "Ġnightstand": 4046,
      "Ġcheesy": 4047,
      "Ġteenager": 4048,
      "VER": 4049,
      "YING": 4050,
      "cast": 4051,
      "Ġwithin": 4052,
      "Ġbasin": 4053,
      "Ġheard": 4054,
      "Ġdeer": 4055,
      "Ġsplit": 4056,
      "Ġmarried": 4057,
      "Ġboogie": 4058,
      "Ġstrapped": 4059,
      "ctory": 4060,
      "Ġstudents": 4061,
      "ĠPHOTO": 4062,
      "Ġpeanut": 4063,
      "dition": 4064,
      "ination": 4065,
      "ities": 4066,
      "ĠAr": 4067,
      "Ġpus": 4068,
      "labor": 4069,
      "Ġgreenery": 4070,
      "Ġelegant": 4071,
      "ĠPro": 4072,
      "Ġmov": 4073,
      "Ġmaj": 4074,
      "ĠLOO": 4075,
      "cloth": 4076,
      "Ġspoons": 4077,
      "Ġtasting": 4078,
      "Ġconvey": 4079,
      "Ġhelicopter": 4080,
      "Ġtropical": 4081,
      "kins": 4082,
      "port": 4083,
      "Ġfry": 4084,
      "Ġroaming": 4085,
      "Ġupright": 4086,
      "Ġseas": 4087,
      "Ġconso": 4088,
      "ĠMale": 4089,
      "Ġdiamond": 4090,
      "angular": 4091,
      "Ġunf": 4092,
      "Ġquilt": 4093,
      "Ġclassic": 4094,
      "ughter": 4095,
      "Ġowl": 4096,
      "Ġpattern": 4097,
      "Ġes": 4098,
      "Ġrecor": 4099,
      "Ġtablecloth": 4100,
      "uld": 4101,
      "Ġoverpass": 4102,
      "Ġspraying": 4103,
      "Ġbald": 4104,
      "Ġcostumes": 4105,
      "Ġmassive": 4106,
      "Ġlisten": 4107,
      "val": 4108,
      "Ġbad": 4109,
      "Ġmin": 4110,
      "Ġhip": 4111,
      "ĠSN": 4112,
      "acks": 4113,
      "ĠFI": 4114,
      "Ġcolle": 4115,
      "Ġkeys": 4116,
      "ĠDon": 4117,
      "ĠNew": 4118,
      "gging": 4119,
      "Ġcelebrating": 4120,
      "ĠSurfer": 4121,
      "Ġinteresting": 4122,
      "dles": 4123,
      "fts": 4124,
      "Ġbor": 4125,
      "Ġdrying": 4126,
      "Ġskater": 4127,
      "Ġturns": 4128,
      "Ġunusual": 4129,
      "ERE": 4130,
      "Ġ5": 4131,
      "Ġhal": 4132,
      "Ġhanding": 4133,
      "Ġsite": 4134,
      "Ġstance": 4135,
      "Ġatten": 4136,
      "Ġcoast": 4137,
      "Ġgives": 4138,
      "Ġposs": 4139,
      "Ġstopping": 4140,
      "Ġcellular": 4141,
      "Ġdoubles": 4142,
      "ĠStuffed": 4143,
      "Ġgarnis": 4144,
      "Ġwrapper": 4145,
      "Ġfreeway": 4146,
      "Ġportra": 4147,
      "IGN": 4148,
      "Ġtransportation": 4149,
      "drop": 4150,
      "Ġostri": 4151,
      "Ġmay": 4152,
      "oored": 4153,
      "Ġrecl": 4154,
      "Ġmotorcyclists": 4155,
      "pples": 4156,
      "apan": 4157,
      "Ġpolka": 4158,
      "Ġcanal": 4159,
      "Ġpeel": 4160,
      "Ġsailboats": 4161,
      "ĠUS": 4162,
      "Ġfigurine": 4163,
      "Ġlanguage": 4164,
      "ode": 4165,
      "Ġwill": 4166,
      "Ġrol": 4167,
      "Ġtents": 4168,
      "Ġairbor": 4169,
      "Ġdiv": 4170,
      "Ġknee": 4171,
      "Ġdrawer": 4172,
      "Ġfactory": 4173,
      "Ġwindsurf": 4174,
      "Ġadjusting": 4175,
      "Ġbuggy": 4176,
      "Ġcome": 4177,
      "Ġhooked": 4178,
      "Ġtext": 4179,
      "ĠLong": 4180,
      "Ġunlo": 4181,
      "Ġprov": 4182,
      "Ġbagel": 4183,
      "Ġprint": 4184,
      "Ġgrinding": 4185,
      "Ġconference": 4186,
      "Ġconsole": 4187,
      "AP": 4188,
      "ILE": 4189,
      "hand": 4190,
      "Ġcrib": 4191,
      "Ġthing": 4192,
      "ably": 4193,
      "Ġcartoon": 4194,
      "sticks": 4195,
      "Ġcompan": 4196,
      "Ġtape": 4197,
      "ĠLe": 4198,
      "Ġthemed": 4199,
      "Ġcurve": 4200,
      "ĠEurope": 4201,
      "Ġposts": 4202,
      "Ġwinding": 4203,
      "Ġornam": 4204,
      "Ġindicating": 4205,
      "ĠBUS": 4206,
      "bag": 4207,
      "no": 4208,
      "Ġtiss": 4209,
      "Ġsup": 4210,
      "Ġrect": 4211,
      "Ġbackdrop": 4212,
      "ĠPass": 4213,
      "Ġweird": 4214,
      "uble": 4215,
      "ĠLa": 4216,
      "Ġsilhou": 4217,
      "Ġdepot": 4218,
      "Ġphotographer": 4219,
      "Ġlearning": 4220,
      "Ġnotebook": 4221,
      "ora": 4222,
      "Ġident": 4223,
      "rome": 4224,
      "idy": 4225,
      "Ġelevated": 4226,
      "Ġwake": 4227,
      "Ġboarders": 4228,
      "ĠCAT": 4229,
      "Ġhangar": 4230,
      "Ġcleaned": 4231,
      "Ġpinea": 4232,
      "Ġhuman": 4233,
      "Ġautom": 4234,
      "Ġextended": 4235,
      "ĠAfric": 4236,
      "ĠBATHROOM": 4237,
      "ky": 4238,
      "ĠAirl": 4239,
      "Ġcree": 4240,
      "ised": 4241,
      "Ġmap": 4242,
      "ico": 4243,
      "Ġeag": 4244,
      "Ġshades": 4245,
      "Ġcloud": 4246,
      "Ġblur": 4247,
      "Ġcompartment": 4248,
      "Ġbrief": 4249,
      "ĠHer": 4250,
      "Ġspeaking": 4251,
      "Ġmashed": 4252,
      "Ġinclude": 4253,
      "Ġalcohol": 4254,
      "ailing": 4255,
      "vi": 4256,
      "Ġpug": 4257,
      "oping": 4258,
      "Ġdec": 4259,
      "ĠGRO": 4260,
      "ĠNo": 4261,
      "ooth": 4262,
      "Ġutility": 4263,
      "Ġoppon": 4264,
      "ĠPlates": 4265,
      "Ġproducts": 4266,
      "Ġparachute": 4267,
      "ĠPhoto": 4268,
      "Ġkissing": 4269,
      "ĠSNOW": 4270,
      "Ġairborne": 4271,
      "ĠPassen": 4272,
      "den": 4273,
      "suit": 4274,
      "ĠTOP": 4275,
      "Ġnow": 4276,
      "vering": 4277,
      "amb": 4278,
      "ĠWALKING": 4279,
      "ĠFruit": 4280,
      "Ġfloat": 4281,
      "ĠLots": 4282,
      "Ġmonument": 4283,
      "Ġrowing": 4284,
      "Ġwindowsill": 4285,
      "Ġpathway": 4286,
      "Ġbutt": 4287,
      "Ġindividuals": 4288,
      "Ġnumerous": 4289,
      "ditional": 4290,
      "Ġwicker": 4291,
      "ened": 4292,
      "Ġhistor": 4293,
      "Ġheadboard": 4294,
      "INK": 4295,
      "Ġflav": 4296,
      "Ġsignals": 4297,
      "Ġsquatting": 4298,
      "EE": 4299,
      "UP": 4300,
      "Ġbis": 4301,
      "Ġfrying": 4302,
      "ĠTEN": 4303,
      "Ġnaked": 4304,
      "ops": 4305,
      "Ġsnugg": 4306,
      "Ġcarry": 4307,
      "stone": 4308,
      "Ġblu": 4309,
      "Ġovercast": 4310,
      "Ġdest": 4311,
      "ĠFe": 4312,
      "Ġdrivers": 4313,
      "Ġbabies": 4314,
      "ugged": 4315,
      "Ġjackets": 4316,
      "ATING": 4317,
      "Ġamid": 4318,
      "Ġparent": 4319,
      "Ġcircus": 4320,
      "Ġinstr": 4321,
      "Ġdaughter": 4322,
      "Ġstroller": 4323,
      "ixt": 4324,
      "pan": 4325,
      "Ġba": 4326,
      "hedr": 4327,
      "Ġblood": 4328,
      "Ġwaff": 4329,
      "Ġmessage": 4330,
      "Ġpractice": 4331,
      "Ġphotographed": 4332,
      "UND": 4333,
      "Ġbegin": 4334,
      "Ġhauling": 4335,
      "Ġportrait": 4336,
      "des": 4337,
      "view": 4338,
      "Ġtux": 4339,
      "Ġsuch": 4340,
      "Ġlie": 4341,
      "Ġchristmas": 4342,
      "andel": 4343,
      "ĠSlic": 4344,
      "ĠSOM": 4345,
      "Ġcarous": 4346,
      "Ġjars": 4347,
      "Ġpod": 4348,
      "ational": 4349,
      "ĠOrange": 4350,
      "Ġchained": 4351,
      "ritish": 4352,
      "Ġthumbs": 4353,
      "Ġfestival": 4354,
      "hedral": 4355,
      "Ġthird": 4356,
      "Ġasph": 4357,
      "ĠLady": 4358,
      "ĠSkier": 4359,
      "ĠAdults": 4360,
      "Ġsoldiers": 4361,
      "ĠSUR": 4362,
      "Ġkept": 4363,
      "Ġuncooked": 4364,
      "Ġgeese": 4365,
      "life": 4366,
      "obile": 4367,
      "iger": 4368,
      "Ġelabor": 4369,
      "Ġplains": 4370,
      "Ġgrown": 4371,
      "Ġgravy": 4372,
      "ĠPark": 4373,
      "Ġsails": 4374,
      "scra": 4375,
      "ĠClock": 4376,
      "Ġfigurines": 4377,
      "Ġdepicting": 4378,
      "ĠPARK": 4379,
      "ĠROOM": 4380,
      "HER": 4381,
      "Ġstom": 4382,
      "Ġstable": 4383,
      "Ġna": 4384,
      "Ġnur": 4385,
      "Ġskil": 4386,
      "Ġshines": 4387,
      "ĠSo": 4388,
      "ĠSand": 4389,
      "ĠBat": 4390,
      "ills": 4391,
      "ĠCAR": 4392,
      "ipe": 4393,
      "Ġprot": 4394,
      "Ġemb": 4395,
      "Ġpiles": 4396,
      "Ġseating": 4397,
      "Ġbackpacks": 4398,
      "Ġknees": 4399,
      "Ġdigital": 4400,
      "Ġcarousel": 4401,
      "cy": 4402,
      "Ġplacing": 4403,
      "ams": 4404,
      "Ġdisk": 4405,
      "Ġtowing": 4406,
      "Ġappear": 4407,
      "Ġworn": 4408,
      "Ġbarbed": 4409,
      "Ġarmy": 4410,
      "Ġpackage": 4411,
      "Ġstaircase": 4412,
      "Ġtoasted": 4413,
      "Ġmedium": 4414,
      "ĠTRAIN": 4415,
      "ĠSKATE": 4416,
      "Ġcustomers": 4417,
      "Ġsneakers": 4418,
      "Ġconveyor": 4419,
      "Ġroller": 4420,
      "Ġasphalt": 4421,
      "NIS": 4422,
      "Ġoriental": 4423,
      "ĠAl": 4424,
      "Ġrot": 4425,
      "ions": 4426,
      "ĠPI": 4427,
      "ĠWood": 4428,
      "ĠCOM": 4429,
      "ĠLiving": 4430,
      "REE": 4431,
      "ĠĠĠĠ": 4432,
      "ude": 4433,
      "Ġclosely": 4434,
      "Ġtourists": 4435,
      "Ġcompeting": 4436,
      "Ġkettle": 4437,
      "Ġbillboard": 4438,
      "ĠPolice": 4439,
      "PL": 4440,
      "emb": 4441,
      "ipp": 4442,
      "rew": 4443,
      "ately": 4444,
      "Ġyouth": 4445,
      "Ġgrab": 4446,
      "ells": 4447,
      "Ġskyscra": 4448,
      "Ġmeats": 4449,
      "Ġscenic": 4450,
      "Ġnote": 4451,
      "Ġcrack": 4452,
      "OWN": 4453,
      "ĠJapan": 4454,
      "Ġreturning": 4455,
      "ĠHorse": 4456,
      "Ġprinter": 4457,
      "ĠMotorcycles": 4458,
      "Ġadorned": 4459,
      "ĠGRASS": 4460,
      "Ġstomach": 4461,
      "ains": 4462,
      "Ġpress": 4463,
      "Ġkeyboards": 4464,
      "Ġmarked": 4465,
      "Ġplanter": 4466,
      "Ġstripes": 4467,
      "Ġpears": 4468,
      "osed": 4469,
      "ĠPLATE": 4470,
      "ĠBLACK": 4471,
      "truck": 4472,
      "Ġwarehouse": 4473,
      "Ġlobby": 4474,
      "Ġdirectly": 4475,
      "Ġcluster": 4476,
      "CE": 4477,
      "ST": 4478,
      "hat": 4479,
      "ient": 4480,
      "ikes": 4481,
      "res": 4482,
      "Ġanch": 4483,
      "Ġfoli": 4484,
      "Ġhind": 4485,
      "otic": 4486,
      "elly": 4487,
      "Ġselection": 4488,
      "ĠChe": 4489,
      "ĠFL": 4490,
      "ĠOpen": 4491,
      "Ġbarbe": 4492,
      "Ġrocking": 4493,
      "Ġtube": 4494,
      "Ġstalls": 4495,
      "Ġfarmers": 4496,
      "ĠDouble": 4497,
      "Ġpowdered": 4498,
      "Ġshrubs": 4499,
      "ĠFlowers": 4500,
      "Ġsavannah": 4501,
      "attoo": 4502,
      "Ġinspe": 4503,
      "ĠTENNIS": 4504,
      "rup": 4505,
      "Ġcall": 4506,
      "Ġones": 4507,
      "Ġbean": 4508,
      "Ġplaces": 4509,
      "ĠSIGN": 4510,
      "Ġracks": 4511,
      "Ġtowers": 4512,
      "Ġstationary": 4513,
      "ĠDel": 4514,
      "ĠHa": 4515,
      "Ġdonkey": 4516,
      "ĠUP": 4517,
      "Ġstrawberry": 4518,
      "Ġshuttle": 4519,
      "Ġblueb": 4520,
      "Ġfoliage": 4521,
      "Ġpuddle": 4522,
      "Ġeas": 4523,
      "Ġrob": 4524,
      "Ġchrome": 4525,
      "Ġcathedral": 4526,
      "Ġpocket": 4527,
      "Ġwere": 4528,
      "Ġroadside": 4529,
      "ĠBritish": 4530,
      "Ġslide": 4531,
      "Ġtrio": 4532,
      "Ġtrip": 4533,
      "Ġmetro": 4534,
      "Ġsau": 4535,
      "Ġbookcase": 4536,
      "Ġattract": 4537,
      "Ġextra": 4538,
      "Ġentering": 4539,
      "Ġteenage": 4540,
      "ĠRoad": 4541,
      "Ġcruise": 4542,
      "Ġbarrier": 4543,
      "ĠCanad": 4544,
      "Ġopponent": 4545,
      "gen": 4546,
      "ively": 4547,
      "uched": 4548,
      "Ġsol": 4549,
      "ĠAt": 4550,
      "Ġpig": 4551,
      "ishes": 4552,
      "Ġnames": 4553,
      "Ġchan": 4554,
      "Ġconf": 4555,
      "ĠFire": 4556,
      "Ġmidair": 4557,
      "ĠLuggage": 4558,
      "Ġhelp": 4559,
      "Ġdeserted": 4560,
      "Ġcrouching": 4561,
      "Ġinteract": 4562,
      "Ġstretched": 4563,
      "Ġsuite": 4564,
      "ĠEnglish": 4565,
      "ĠWATER": 4566,
      "ĠLOOKING": 4567,
      "Ġpodium": 4568,
      "ĠSandw": 4569,
      "IM": 4570,
      "VING": 4571,
      "Ġ6": 4572,
      "Ġcoo": 4573,
      "ont": 4574,
      "orn": 4575,
      "tery": 4576,
      "ĠBab": 4577,
      "Ġintently": 4578,
      "Ġscrat": 4579,
      "Ġtex": 4580,
      "Ġmacar": 4581,
      "Ġmeas": 4582,
      "deled": 4583,
      "Ġspecial": 4584,
      "Ġsubur": 4585,
      "Ġshapes": 4586,
      "Ġshoulders": 4587,
      "Ġcubicle": 4588,
      "Ġstools": 4589,
      "Ġbalances": 4590,
      "ixture": 4591,
      "Ġtattoo": 4592,
      "Ġcud": 4593,
      "Ġgy": 4594,
      "ccup": 4595,
      "ĠOUT": 4596,
      "Ġchecks": 4597,
      "Ġlogo": 4598,
      "Ġstores": 4599,
      "ĠVery": 4600,
      "ĠKIT": 4601,
      "Ġpaintings": 4602,
      "Ġharness": 4603,
      "ONE": 4604,
      "Ġelectrical": 4605,
      "Ġrubb": 4606,
      "Ġsoldier": 4607,
      "ĠComp": 4608,
      "ĠVeget": 4609,
      "Ġlistening": 4610,
      "GET": 4611,
      "father": 4612,
      "Ġmixture": 4613,
      "Ġnest": 4614,
      "Ġmane": 4615,
      "Ġnecks": 4616,
      "Ġrings": 4617,
      "Ġdressing": 4618,
      "Ġlove": 4619,
      "Ġmaroon": 4620,
      "Ġdiner": 4621,
      "rong": 4622,
      "Ġchopsticks": 4623,
      "Ġarchite": 4624,
      "Ġdusty": 4625,
      "Ġleaned": 4626,
      "ye": 4627,
      "iner": 4628,
      "Ġtee": 4629,
      "Ġpay": 4630,
      "Ġdash": 4631,
      "lain": 4632,
      "Ġfrozen": 4633,
      "Ġgroups": 4634,
      "Ġrunner": 4635,
      "ments": 4636,
      "Ġfeeds": 4637,
      "Ġunit": 4638,
      "Ġcommode": 4639,
      "Ġpartly": 4640,
      "Ġstepping": 4641,
      "Ġcrate": 4642,
      "Ġoutfits": 4643,
      "Ġwheelchair": 4644,
      "Ġmuffins": 4645,
      "ĠDonuts": 4646,
      "NG": 4647,
      "Ġtim": 4648,
      "Ġcurious": 4649,
      "ern": 4650,
      "Ġdug": 4651,
      "ummy": 4652,
      "amas": 4653,
      "Ġvac": 4654,
      "ĠBASE": 4655,
      "Ġboardwalk": 4656,
      "Ġenvi": 4657,
      "ĠLight": 4658,
      "Ġwhen": 4659,
      "ronment": 4660,
      "Ġnewly": 4661,
      "Ġrubbing": 4662,
      "ĠSKI": 4663,
      "Ġparasol": 4664,
      "ĠPlay": 4665,
      "Ġtuxed": 4666,
      "Ġtexting": 4667,
      "Ġmacaroni": 4668,
      "like": 4669,
      "Ġsum": 4670,
      "ĠAll": 4671,
      "alle": 4672,
      "eter": 4673,
      "utes": 4674,
      "ically": 4675,
      "Ġki": 4676,
      "cept": 4677,
      "Ġyog": 4678,
      "Ġfloats": 4679,
      "Ġdip": 4680,
      "Ġloaf": 4681,
      "Ġemer": 4682,
      "Ġapart": 4683,
      "Ġartistic": 4684,
      "Ġtourist": 4685,
      "Ġantel": 4686,
      "Ġclaim": 4687,
      "Ġsyrup": 4688,
      "Ġstarting": 4689,
      "Ġradio": 4690,
      "ĠSnowboarder": 4691,
      "Ġrectangular": 4692,
      "Ġenvironment": 4693,
      "cue": 4694,
      "Ġid": 4695,
      "Ġsat": 4696,
      "Ġble": 4697,
      "ĠAIR": 4698,
      "Ġcooks": 4699,
      "erman": 4700,
      "atula": 4701,
      "Ġgun": 4702,
      "Ġtouch": 4703,
      "Ġlimb": 4704,
      "Ġstump": 4705,
      "ution": 4706,
      "Ġchandel": 4707,
      "Ġblinds": 4708,
      "Ġspatula": 4709,
      "Ġdipping": 4710,
      "ĠLAR": 4711,
      "Ġarray": 4712,
      "Ġbicyclist": 4713,
      "Ġserves": 4714,
      "ERY": 4715,
      "Ġpeering": 4716,
      "Ġpaj": 4717,
      "Ġshots": 4718,
      "Ġfog": 4719,
      "ĠSTOP": 4720,
      "Ġstretches": 4721,
      "Ġcaption": 4722,
      "ĠRED": 4723,
      "Ġoperating": 4724,
      "Ġinfant": 4725,
      "Ġmajor": 4726,
      "Ġostrich": 4727,
      "ĠSURF": 4728,
      "AGE": 4729,
      "ino": 4730,
      "inished": 4731,
      "Ġtry": 4732,
      "Ġtiger": 4733,
      "urt": 4734,
      "Ġstreetlight": 4735,
      "Ġsharp": 4736,
      "Ġflipping": 4737,
      "ĠPedest": 4738,
      "Ġspeeding": 4739,
      "Ġcamp": 4740,
      "Ġlodge": 4741,
      "Ġrefrigerators": 4742,
      "ĠHOR": 4743,
      "Ġcrates": 4744,
      "Ġfigures": 4745,
      "Ġspotted": 4746,
      "ĠBoys": 4747,
      "Ġexcited": 4748,
      "ĠAfrican": 4749,
      "ĠBaby": 4750,
      "Ġbump": 4751,
      "Ġbamb": 4752,
      "Ġinform": 4753,
      "Ġferry": 4754,
      "Ġmes": 4755,
      "Ġneeds": 4756,
      "celain": 4757,
      "Ġsignage": 4758,
      "Ġgrassland": 4759,
      "ĠELE": 4760,
      "Ġpoliceman": 4761,
      "ibly": 4762,
      "ĠHere": 4763,
      "Ġpriv": 4764,
      "Ġshrubb": 4765,
      "Ġgrandfather": 4766,
      "Ġspacious": 4767,
      "Ġcobblestone": 4768,
      "Ġtissue": 4769,
      "ĠFemale": 4770,
      "Ġskillet": 4771,
      "Ġgym": 4772,
      "ĠLARGE": 4773,
      "ĠPedestri": 4774,
      "Ġbamboo": 4775,
      "UR": 4776,
      "aves": 4777,
      "fall": 4778,
      "field": 4779,
      "rand": 4780,
      "Ġstart": 4781,
      "Ġpies": 4782,
      "Ġyounger": 4783,
      "ĠBright": 4784,
      "ĠCLO": 4785,
      "Ġhitter": 4786,
      "ĠGra": 4787,
      "acting": 4788,
      "Ġquick": 4789,
      "Ġextre": 4790,
      "ĠSUV": 4791,
      "Ġremodeled": 4792,
      "Ġangle": 4793,
      "Ġelse": 4794,
      "Ġcherry": 4795,
      "ĠModern": 4796,
      "sa": 4797,
      "Ġtidy": 4798,
      "Ġdual": 4799,
      "ripe": 4800,
      "Ġroman": 4801,
      "Ġdozen": 4802,
      "Ġdemon": 4803,
      "ĠOut": 4804,
      "Ġmountainous": 4805,
      "Ġclearing": 4806,
      "Ġcurved": 4807,
      "Ġengaged": 4808,
      "Ġsofas": 4809,
      "Ġartwork": 4810,
      "Ġentree": 4811,
      "Ġsprinkled": 4812,
      "Ġcalico": 4813,
      "ĠAirlines": 4814,
      "mar": 4815,
      "Ġtuck": 4816,
      "Ġdone": 4817,
      "iday": 4818,
      "icip": 4819,
      "Ġplush": 4820,
      "Ġsomewhere": 4821,
      "umn": 4822,
      "ĠBunches": 4823,
      "ĠDOWN": 4824,
      "ĠEATING": 4825,
      "ĠSmiling": 4826,
      "Ġwasher": 4827,
      "Ġcraft": 4828,
      "Ġspots": 4829,
      "Ġstunts": 4830,
      "ILD": 4831,
      "Ġsweet": 4832,
      "ĠEuropean": 4833,
      "Ġpajamas": 4834,
      "Ġthru": 4835,
      "Ġships": 4836,
      "Ġram": 4837,
      "Ġjelly": 4838,
      "Ġmenu": 4839,
      "Ġsauc": 4840,
      "Ġmemb": 4841,
      "Ġcarriages": 4842,
      "Ġbalance": 4843,
      "Ġletter": 4844,
      "Ġglowing": 4845,
      "Ġfurnishing": 4846,
      "Ġawaiting": 4847,
      "Ġskinny": 4848,
      "Ġshrubbery": 4849,
      "Ġran": 4850,
      "ckets": 4851,
      "ĠBic": 4852,
      "ĠBED": 4853,
      "Ġalarm": 4854,
      "Ġtagged": 4855,
      "Ġbigger": 4856,
      "ĠOlder": 4857,
      "IGHT": 4858,
      "Ġmovie": 4859,
      "Ġidentical": 4860,
      "Ġelaborate": 4861,
      "ĠBatter": 4862,
      "AIR": 4863,
      "fashion": 4864,
      "off": 4865,
      "Ġbla": 4866,
      "Ġinfl": 4867,
      "Ġdam": 4868,
      "ends": 4869,
      "Ġton": 4870,
      "Ġtrave": 4871,
      "Ġfix": 4872,
      "ĠSil": 4873,
      "Ġottom": 4874,
      "Ġweeds": 4875,
      "ĠMar": 4876,
      "ppy": 4877,
      "ĠFor": 4878,
      "Ġbowling": 4879,
      "Ġviewed": 4880,
      "Ġgour": 4881,
      "venue": 4882,
      "ĠHand": 4883,
      "Ġbarren": 4884,
      "ĠEm": 4885,
      "Ġappliance": 4886,
      "Ġfarmer": 4887,
      "ĠInside": 4888,
      "Ġbiker": 4889,
      "Ġporcelain": 4890,
      "Ġfingers": 4891,
      "Ġunfinished": 4892,
      "Ġrubber": 4893,
      "BO": 4894,
      "cuit": 4895,
      "kers": 4896,
      "Ġmoored": 4897,
      "Ġhut": 4898,
      "Ġdancing": 4899,
      "ilted": 4900,
      "Ġreal": 4901,
      "ĠSIDE": 4902,
      "Ġraw": 4903,
      "Ġjunk": 4904,
      "Ġhear": 4905,
      "Ġtreats": 4906,
      "aging": 4907,
      "Ġbanner": 4908,
      "Ġcutter": 4909,
      "ushi": 4910,
      "Ġpitched": 4911,
      "Ġwildlife": 4912,
      "ĠBOY": 4913,
      "Ġseparated": 4914,
      "Ġcooling": 4915,
      "ĠAssorted": 4916,
      "Ġsuper": 4917,
      "fashioned": 4918,
      "AFF": 4919,
      "pid": 4920,
      "pris": 4921,
      "Ġ'": 4922,
      "Ġtying": 4923,
      "Ġpork": 4924,
      "Ġcast": 4925,
      "Ġgaming": 4926,
      "onal": 4927,
      "Ġparts": 4928,
      "Ġrabb": 4929,
      "ĠCl": 4930,
      "Ġswung": 4931,
      "Ġbunny": 4932,
      "ĠLI": 4933,
      "ITY": 4934,
      "Ġengines": 4935,
      "ĠProfessional": 4936,
      "Ġesc": 4937,
      "Ġpineapple": 4938,
      "Ġsuburban": 4939,
      "yed": 4940,
      "Ġox": 4941,
      "ĠApples": 4942,
      "het": 4943,
      "alled": 4944,
      "Ġemp": 4945,
      "Ġled": 4946,
      "Ġhandic": 4947,
      "Ġhandbag": 4948,
      "Ġtreat": 4949,
      "Ġcontra": 4950,
      "Ġlining": 4951,
      "Ġstripped": 4952,
      "Ġpenc": 4953,
      "Ġnotes": 4954,
      "Ġequipped": 4955,
      "Ġlifting": 4956,
      "ĠHerd": 4957,
      "fo": 4958,
      "ote": 4959,
      "Ġwalled": 4960,
      "ugs": 4961,
      "Ġtowed": 4962,
      "Ġopens": 4963,
      "Ġteaching": 4964,
      "Ġviewing": 4965,
      "ĠInt": 4966,
      "ĠGre": 4967,
      "Ġlocked": 4968,
      "shield": 4969,
      "Ġstacks": 4970,
      "Ġpads": 4971,
      "Ġcelery": 4972,
      "Ġhoodie": 4973,
      "ĠBEACH": 4974,
      "uzzy": 4975,
      "Ġathlet": 4976,
      "Ġpossibly": 4977,
      "Ġbuttons": 4978,
      "Ġchandelier": 4979,
      "PH": 4980,
      "park": 4981,
      "Ġtro": 4982,
      "Ġpil": 4983,
      "Ġfile": 4984,
      "Ġmural": 4985,
      "Ġdro": 4986,
      "Ġlime": 4987,
      "rie": 4988,
      "Ġrough": 4989,
      "Ġlead": 4990,
      "Ġbends": 4991,
      "ĠCrow": 4992,
      "Ġwallp": 4993,
      "Ġhandles": 4994,
      "Ġmail": 4995,
      "Ġmaker": 4996,
      "Ġovens": 4997,
      "Ġbreaking": 4998,
      "Ġmean": 4999,
      "Ġforested": 5000,
      "Ġnecktie": 5001,
      "Ġhappily": 5002,
      "Ġexpress": 5003,
      "ELL": 5004,
      "Ġpigeon": 5005,
      "Ġhiking": 5006,
      "ĠSMALL": 5007,
      "Ġhipster": 5008,
      "ĠLaptop": 5009,
      "iam": 5010,
      "noon": 5011,
      "par": 5012,
      "Ġwool": 5013,
      "Ġcot": 5014,
      "Ġwhipped": 5015,
      "Ġwindshield": 5016,
      "aggy": 5017,
      "dless": 5018,
      "Ġgarlic": 5019,
      "Ġletting": 5020,
      "Ġblocks": 5021,
      "Ġsilly": 5022,
      "Ġiced": 5023,
      "ION": 5024,
      "foot": 5025,
      "Ġbid": 5026,
      "Ġtraditional": 5027,
      "Ġrode": 5028,
      "Ġholiday": 5029,
      "Ġrim": 5030,
      "uments": 5031,
      "Ġoutst": 5032,
      "Ġgrouped": 5033,
      "Ġwaterfall": 5034,
      "imate": 5035,
      "Ġhoriz": 5036,
      "ĠCITY": 5037,
      "Ġtech": 5038,
      "Ġridding": 5039,
      "Ġclown": 5040,
      "Ġadm": 5041,
      "Ġsteer": 5042,
      "Ġcrest": 5043,
      "Ġoutfield": 5044,
      "Ġcrouched": 5045,
      "Ġinteracting": 5046,
      "Ġjeep": 5047,
      "Ġpowder": 5048,
      "Ġplent": 5049,
      "Ġwindsurfing": 5050,
      "Ġunloading": 5051,
      "Ġeagle": 5052,
      "ĠWooden": 5053,
      "Ġcrackers": 5054,
      "Ġtuxedo": 5055,
      "Ġfurnishings": 5056,
      "Ġottoman": 5057,
      "zens": 5058,
      "Ġsushi": 5059,
      "itive": 5060,
      "Ġhanger": 5061,
      "alo": 5062,
      "law": 5063,
      "Ġsitu": 5064,
      "Ġcock": 5065,
      "andal": 5066,
      "Ġplayground": 5067,
      "tern": 5068,
      "ĠMe": 5069,
      "Ġdef": 5070,
      "acent": 5071,
      "Ġaged": 5072,
      "Ġattent": 5073,
      "Ġpeas": 5074,
      "Ġpengu": 5075,
      "Ġafternoon": 5076,
      "Ġlocal": 5077,
      "vention": 5078,
      "Ġletters": 5079,
      "ĠiP": 5080,
      "ĠIndian": 5081,
      "ĠGROUP": 5082,
      "Ġattractive": 5083,
      "osing": 5084,
      "ually": 5085,
      "Ġpane": 5086,
      "ence": 5087,
      "ĠTour": 5088,
      "Ġcoke": 5089,
      "Ġreno": 5090,
      "Ġtram": 5091,
      "Ġroas": 5092,
      "Ġshred": 5093,
      "Ġupward": 5094,
      "ĠSun": 5095,
      "ulated": 5096,
      "Ġhorned": 5097,
      "Ġpoised": 5098,
      "ĠBow": 5099,
      "Ġalumin": 5100,
      "Ġslides": 5101,
      "Ġbicyclists": 5102,
      "ocad": 5103,
      "Ġpitchers": 5104,
      "Ġfoam": 5105,
      "ROUND": 5106,
      "berries": 5107,
      "Ġblocking": 5108,
      "Ġbulls": 5109,
      "Ġadjacent": 5110,
      "ĠKites": 5111,
      "Ġblurred": 5112,
      "ĠComputer": 5113,
      "Ġyogurt": 5114,
      "ache": 5115,
      "een": 5116,
      "gn": 5117,
      "Ġcent": 5118,
      "Ġfit": 5119,
      "Ġfle": 5120,
      "Ġhud": 5121,
      "Ġgoo": 5122,
      "Ġlower": 5123,
      "Ġcoats": 5124,
      "Ġshaggy": 5125,
      "Ġwatched": 5126,
      "Ġmotel": 5127,
      "Ġscale": 5128,
      "leslaw": 5129,
      "Ġpreten": 5130,
      "Ġtheme": 5131,
      "arth": 5132,
      "ANE": 5133,
      "Ġchickens": 5134,
      "ivity": 5135,
      "Ġwrap": 5136,
      "Ġstained": 5137,
      "ĠCattle": 5138,
      "Ġfollowed": 5139,
      "Ġcalled": 5140,
      "flowers": 5141,
      "ĠSurfers": 5142,
      "Ġbullet": 5143,
      "ĠCHILD": 5144,
      "retched": 5145,
      "Ġhalves": 5146,
      "Ġsilhouette": 5147,
      "Ġautomobile": 5148,
      "Ġbiscuit": 5149,
      "ĠJapanese": 5150,
      "Ġaluminum": 5151,
      "UE": 5152,
      "VE": 5153,
      "inger": 5154,
      "Ġmoney": 5155,
      "Ġgall": 5156,
      "ics": 5157,
      "Ġcoleslaw": 5158,
      "Ġrel": 5159,
      "Ġleave": 5160,
      "ĠWIN": 5161,
      "ĠFOOD": 5162,
      "Ġfiretruck": 5163,
      "Ġfema": 5164,
      "acter": 5165,
      "Ġperches": 5166,
      "ĠVERY": 5167,
      "Ġstripe": 5168,
      "Ġbelong": 5169,
      "Ġdirecting": 5170,
      "Ġpointed": 5171,
      "Ġgliding": 5172,
      "Ġstrings": 5173,
      "Ġprovide": 5174,
      "Ġgourmet": 5175,
      "ose": 5176,
      "thing": 5177,
      "Ġ7": 5178,
      "Ġpage": 5179,
      "alks": 5180,
      "ĠSp": 5181,
      "Ġcarn": 5182,
      "Ġsurpris": 5183,
      "Ġgrasses": 5184,
      "Ġpoking": 5185,
      "Ġbricks": 5186,
      "Ġdiving": 5187,
      "Ġdriven": 5188,
      "temp": 5189,
      "Ġunripe": 5190,
      "Ġguests": 5191,
      "Ġsetup": 5192,
      "ĠRI": 5193,
      "wear": 5194,
      "izing": 5195,
      "Ġfeathers": 5196,
      "Ġflatbed": 5197,
      "Ġcards": 5198,
      "Ġmixing": 5199,
      "Ġportion": 5200,
      "Ġcubs": 5201,
      "Ġpowered": 5202,
      "Ġavocad": 5203,
      "ĠNEAR": 5204,
      "Ġfolding": 5205,
      "ĠVegetables": 5206,
      "Ġdugout": 5207,
      "Ġoutstretched": 5208,
      "Ġfemales": 5209,
      "BR": 5210,
      "UM": 5211,
      "ua": 5212,
      "Ġsled": 5213,
      "Ġpir": 5214,
      "atable": 5215,
      "ilar": 5216,
      "Ġrelish": 5217,
      "ĠSE": 5218,
      "ĠSpe": 5219,
      "Ġskates": 5220,
      "Ġtoiletries": 5221,
      "ĠBR": 5222,
      "Ġshed": 5223,
      "Ġasc": 5224,
      "Ġspar": 5225,
      "Ġdinning": 5226,
      "Ġpanel": 5227,
      "Ġpillar": 5228,
      "Ġuniformed": 5229,
      "nequ": 5230,
      "Ġvisit": 5231,
      "Ġsausages": 5232,
      "Ġcharacter": 5233,
      "Ġsimilar": 5234,
      "Ġcycles": 5235,
      "Ġhumming": 5236,
      "Ġsaddle": 5237,
      "ĠUnited": 5238,
      "Ġtort": 5239,
      "ĠAssortment": 5240,
      "Ġcompany": 5241,
      "ĠSOME": 5242,
      "ĠPedestrians": 5243,
      "PING": 5244,
      "ai": 5245,
      "bee": 5246,
      "green": 5247,
      "erior": 5248,
      "Ġhun": 5249,
      "ĠTable": 5250,
      "illed": 5251,
      "ury": 5252,
      "Ġvandal": 5253,
      "Ġbedding": 5254,
      "Ġbackwards": 5255,
      "tled": 5256,
      "Ġheels": 5257,
      "Ġwax": 5258,
      "Ġcompact": 5259,
      "Ġsocks": 5260,
      "Ġflowered": 5261,
      "ĠSeven": 5262,
      "anging": 5263,
      "ĠHalf": 5264,
      "Ġpottery": 5265,
      "Ġsteering": 5266,
      "Ġpeeling": 5267,
      "Ġholes": 5268,
      "ROW": 5269,
      "Ġcrouches": 5270,
      "Ġfalls": 5271,
      "Ġdolls": 5272,
      "avily": 5273,
      "Ġsweatshirt": 5274,
      "Ġbutterf": 5275,
      "Ġwandering": 5276,
      "Ġprotest": 5277,
      "Ġquickly": 5278,
      "Ġplenty": 5279,
      "yond": 5280,
      "inn": 5281,
      "ashing": 5282,
      "Ġbeyond": 5283,
      "Ġroast": 5284,
      "Ġrobe": 5285,
      "Ġplugged": 5286,
      "Ġchamp": 5287,
      "Ġpipes": 5288,
      "Ġherbs": 5289,
      "ranges": 5290,
      "Ġcong": 5291,
      "ĠMeat": 5292,
      "Ġspro": 5293,
      "ĠOranges": 5294,
      "Ġhilly": 5295,
      "Ġnews": 5296,
      "ountry": 5297,
      "AME": 5298,
      "Ġantelope": 5299,
      "Ġinflatable": 5300,
      "ĠEmpty": 5301,
      "AKE": 5302,
      "ZZ": 5303,
      "aff": 5304,
      "Ġtug": 5305,
      "Ġoil": 5306,
      "Ġpets": 5307,
      "Ġnav": 5308,
      "Ġmantle": 5309,
      "Ġvast": 5310,
      "Ġnearly": 5311,
      "zzly": 5312,
      "Ġskiier": 5313,
      "Ġcomplet": 5314,
      "Ġcontemp": 5315,
      "agus": 5316,
      "vest": 5317,
      "Ġstocked": 5318,
      "ĠVE": 5319,
      "Ġspeaker": 5320,
      "Ġdistant": 5321,
      "Ġlocation": 5322,
      "Ġaccents": 5323,
      "Ġrelax": 5324,
      "Ġparasailing": 5325,
      "Ġbites": 5326,
      "ĠCarrots": 5327,
      "Ġdescri": 5328,
      "Ġcucumbers": 5329,
      "Ġanchored": 5330,
      "Ġcooler": 5331,
      "Ġmeasuring": 5332,
      "ĠBicycle": 5333,
      "Ġrabbit": 5334,
      "Ġbidet": 5335,
      "Ġsituated": 5336,
      "mel": 5337,
      "elle": 5338,
      "Ġeight": 5339,
      "Ġchina": 5340,
      "Ġroads": 5341,
      "Ġconvention": 5342,
      "ĠMOT": 5343,
      "Ġswan": 5344,
      "Ġcord": 5345,
      "Ġdecked": 5346,
      "Ġramps": 5347,
      "ĠVintage": 5348,
      "ĠYork": 5349,
      "olli": 5350,
      "Ġkneels": 5351,
      "Ġretrie": 5352,
      "Ġchopping": 5353,
      "Ġraising": 5354,
      "Ġconsum": 5355,
      "CHEN": 5356,
      "Ġleaps": 5357,
      "Ġslab": 5358,
      "Ġcomfortable": 5359,
      "ILET": 5360,
      "Ġembra": 5361,
      "ĠKITCHEN": 5362,
      "BALL": 5363,
      "ert": 5364,
      "Ġfut": 5365,
      "Ġfuzzy": 5366,
      "Ġnuzz": 5367,
      "Ġmannequ": 5368,
      "ased": 5369,
      "iced": 5370,
      "Ġrolled": 5371,
      "str": 5372,
      "Ġcaution": 5373,
      "Ġaspar": 5374,
      "agne": 5375,
      "Ġsocial": 5376,
      "achers": 5377,
      "Ġunable": 5378,
      "Ġcorral": 5379,
      "ĠHER": 5380,
      "Ġcurrent": 5381,
      "ĠYOU": 5382,
      "mbol": 5383,
      "Ġdiscus": 5384,
      "ĠTOILET": 5385,
      "ELD": 5386,
      "Ġcops": 5387,
      "Ġteenagers": 5388,
      "Ġmelted": 5389,
      "Ġsleek": 5390,
      "Ġinteractive": 5391,
      "ĠELEPH": 5392,
      "Ġvandalized": 5393,
      "EAR": 5394,
      "IE": 5395,
      "PLE": 5396,
      "SIDE": 5397,
      "bird": 5398,
      "ĠAve": 5399,
      "arn": 5400,
      "oms": 5401,
      "Ġthrew": 5402,
      "Ġever": 5403,
      "Ġreve": 5404,
      "Ġboun": 5405,
      "Ġthats": 5406,
      "Ġshare": 5407,
      "Ġsmelling": 5408,
      "Ġcarved": 5409,
      "ĠAnimal": 5410,
      "ĠBY": 5411,
      "ĠBALL": 5412,
      "Ġrh": 5413,
      "Ġscru": 5414,
      "Ġimp": 5415,
      "Ġmem": 5416,
      "Ġhelps": 5417,
      "Ġassemb": 5418,
      "Ġsymbol": 5419,
      "Ġliquor": 5420,
      "ĠPIZZ": 5421,
      "Ġdemonstr": 5422,
      "ĠELEPHANT": 5423,
      "RT": 5424,
      "country": 5425,
      "hua": 5426,
      "Ġtet": 5427,
      "ĠAvenue": 5428,
      "lete": 5429,
      "Ġareas": 5430,
      "Ġcould": 5431,
      "Ġsmooth": 5432,
      "Ġheavily": 5433,
      "Ġmidst": 5434,
      "Ġcabbage": 5435,
      "Ġmarsh": 5436,
      "Ġstem": 5437,
      "ĠĠĠ": 5438,
      "Ġstorefront": 5439,
      "Ġwheeled": 5440,
      "Ġsmiley": 5441,
      "Ġportable": 5442,
      "Ġsmartphone": 5443,
      "Ġcasser": 5444,
      "Ġthough": 5445,
      "Ġkayak": 5446,
      "Ġwallpaper": 5447,
      "Ġtortilla": 5448,
      "band": 5449,
      "tra": 5450,
      "wk": 5451,
      "ys": 5452,
      "yle": 5453,
      "Ġincoming": 5454,
      "Ġhom": 5455,
      "orary": 5456,
      "Ġnes": 5457,
      "chan": 5458,
      "Ġtending": 5459,
      "Ġairfield": 5460,
      "Ġbend": 5461,
      "Ġzone": 5462,
      "ĠCon": 5463,
      "Ġappet": 5464,
      "Ġstew": 5465,
      "Ġmeals": 5466,
      "Ġstrike": 5467,
      "Ġlayered": 5468,
      "Ġcarrier": 5469,
      "Ġ19": 5470,
      "Ġprice": 5471,
      "ĠParking": 5472,
      "Ġknitted": 5473,
      "Ġmaterials": 5474,
      "Ġdashboard": 5475,
      "ĠHORSE": 5476,
      "Ġprivate": 5477,
      "Ġsparse": 5478,
      "Ġasparagus": 5479,
      "ĠPIZZA": 5480,
      "dress": 5481,
      "Ġovers": 5482,
      "ana": 5483,
      "Ġcyclist": 5484,
      "Ġdorm": 5485,
      "ense": 5486,
      "Ġstating": 5487,
      "iring": 5488,
      "Ġshaded": 5489,
      "Ġshake": 5490,
      "Ġjam": 5491,
      "Ġsewing": 5492,
      "Ġcapped": 5493,
      "ĠCross": 5494,
      "box": 5495,
      "Ġspre": 5496,
      "Ġswans": 5497,
      "aghet": 5498,
      "Ġclub": 5499,
      "Ġworld": 5500,
      "Ġposters": 5501,
      "Ġamer": 5502,
      "Ġexit": 5503,
      "Ġsquash": 5504,
      "Ġfaced": 5505,
      "Ġtakeoff": 5506,
      "Ġmixer": 5507,
      "Ġmotorbikes": 5508,
      "Ġmopeds": 5509,
      "Ġfinished": 5510,
      "ĠToilet": 5511,
      "Ġprotective": 5512,
      "Ġslowly": 5513,
      "Ġpushed": 5514,
      "Ġinstruments": 5515,
      "Ġkiw": 5516,
      "Ġinformation": 5517,
      "Ġemplo": 5518,
      "Ġchampagne": 5519,
      "Ġcompletely": 5520,
      "ĠMOTOR": 5521,
      "ND": 5522,
      "UL": 5523,
      "YC": 5524,
      "Ġpon": 5525,
      "Ġcit": 5526,
      "Ġfilling": 5527,
      "Ġtouches": 5528,
      "Ġwhit": 5529,
      "Ġrasp": 5530,
      "ĠWork": 5531,
      "ĠFRO": 5532,
      "Ġsour": 5533,
      "eaten": 5534,
      "Ġbiplane": 5535,
      "Ġskatepark": 5536,
      "ĠDES": 5537,
      "Ġcroiss": 5538,
      "Ġcrumb": 5539,
      "Ġbarefoot": 5540,
      "ĠVehic": 5541,
      "ĠFIELD": 5542,
      "ĠPassengers": 5543,
      "gency": 5544,
      "ĠBASEBALL": 5545,
      "Ġtucked": 5546,
      "BOARD": 5547,
      "Ġhuddled": 5548,
      "Ġcasserole": 5549,
      "aghetti": 5550,
      "vet": 5551,
      "Ġtul": 5552,
      "Ġoval": 5553,
      "Ġcrown": 5554,
      "Ġstare": 5555,
      "ĠTru": 5556,
      "olly": 5557,
      "Ġcages": 5558,
      "ĠWashing": 5559,
      "Ġsco": 5560,
      "Ġtemp": 5561,
      "gerator": 5562,
      "Ġsoaked": 5563,
      "angle": 5564,
      "ĠGAME": 5565,
      "Ġcords": 5566,
      "Ġprepar": 5567,
      "Ġmustache": 5568,
      "Ġmugs": 5569,
      "ĠAirplane": 5570,
      "Ġsculptures": 5571,
      "Ġstudio": 5572,
      "ĠBEAR": 5573,
      "Ġlabeled": 5574,
      "Ġcombination": 5575,
      "ĠGIRAFF": 5576,
      "ĠSigns": 5577,
      "Ġcreek": 5578,
      "itting": 5579,
      "ĠAm": 5580,
      "onely": 5581,
      "Ġtraining": 5582,
      "Ġbasil": 5583,
      "Ġblind": 5584,
      "iece": 5585,
      "ĠBird": 5586,
      "Ġtaped": 5587,
      "aped": 5588,
      "Ġsoaring": 5589,
      "lymp": 5590,
      "Ġperch": 5591,
      "Ġstems": 5592,
      "ĠStar": 5593,
      "Ġaccom": 5594,
      "Ġcomfortably": 5595,
      "Ġbriefcase": 5596,
      "Ġbeginning": 5597,
      "Ġmaneu": 5598,
      "ĠGrey": 5599,
      "ĠRIDING": 5600,
      "Ġpirate": 5601,
      "ĠYOUNG": 5602,
      "con": 5603,
      "ola": 5604,
      "Ġges": 5605,
      "urs": 5606,
      "Ġgrape": 5607,
      "ĠSINK": 5608,
      "Ġfields": 5609,
      "sters": 5610,
      "rely": 5611,
      "ĠBear": 5612,
      "Ġspire": 5613,
      "Ġspaghetti": 5614,
      "Ġhydrants": 5615,
      "Ġrefe": 5616,
      "ĠGerman": 5617,
      "ĠTHREE": 5618,
      "Ġdresses": 5619,
      "REEN": 5620,
      "Ġperf": 5621,
      "Ġcanoes": 5622,
      "Ġsquir": 5623,
      "Ġlanded": 5624,
      "Ġcroche": 5625,
      "ouf": 5626,
      "Ġnapkins": 5627,
      "planes": 5628,
      "ĠBuses": 5629,
      "Ġtires": 5630,
      "Ġrise": 5631,
      "Ġshaving": 5632,
      "Ġvolleyball": 5633,
      "ĠPARKED": 5634,
      "ĠSandwich": 5635,
      "Ġscratching": 5636,
      "Ġsaucer": 5637,
      "Ġsurprised": 5638,
      "RI": 5639,
      "ki": 5640,
      "ule": 5641,
      "vil": 5642,
      "yl": 5643,
      "ĠQ": 5644,
      "Ġwip": 5645,
      "Ġoncoming": 5646,
      "Ġdrop": 5647,
      "aling": 5648,
      "igating": 5649,
      "Ġrele": 5650,
      "Ġparalle": 5651,
      "Ġupper": 5652,
      "Ġairline": 5653,
      "Ġcaged": 5654,
      "ĠBed": 5655,
      "ĠBIR": 5656,
      "ĠWater": 5657,
      "ĠOb": 5658,
      "Ġcamouf": 5659,
      "Ġcolorfully": 5660,
      "Ġserious": 5661,
      "Ġpolo": 5662,
      "Ġclearly": 5663,
      "Ġfeatured": 5664,
      "Ġcabinetry": 5665,
      "Ġstretch": 5666,
      "Ġmedical": 5667,
      "Ġdragon": 5668,
      "Ġinstalled": 5669,
      "Ġnumerals": 5670,
      "Ġlimit": 5671,
      "Ġpresentation": 5672,
      "Ġsauces": 5673,
      "ĠCLOCK": 5674,
      "ĠFRONT": 5675,
      "ĠWashington": 5676,
      "Ġgesture": 5677,
      "aw": 5678,
      "can": 5679,
      "cases": 5680,
      "min": 5681,
      "uting": 5682,
      "Ġult": 5683,
      "Ġvert": 5684,
      "Ġbrow": 5685,
      "Ġhour": 5686,
      "Ġmountainside": 5687,
      "Ġbroc": 5688,
      "Ġcamping": 5689,
      "ĠDI": 5690,
      "Ġcheesecake": 5691,
      "Ġmeatball": 5692,
      "Ġsinging": 5693,
      "Ġgrizzly": 5694,
      "Ġtwig": 5695,
      "Ġcarpeted": 5696,
      "acters": 5697,
      "Ġprinted": 5698,
      "Ġbarrels": 5699,
      "ĠScissors": 5700,
      "Ġsummer": 5701,
      "Ġmembers": 5702,
      "du": 5703,
      "Ġtusk": 5704,
      "Ġped": 5705,
      "omebo": 5706,
      "Ġyet": 5707,
      "Ġyarn": 5708,
      "ĠPink": 5709,
      "Ġsex": 5710,
      "ĠBB": 5711,
      "ĠBEN": 5712,
      "ĠMac": 5713,
      "Ġends": 5714,
      "Ġshelving": 5715,
      "ĠRows": 5716,
      "Ġcloudless": 5717,
      "Ġnothing": 5718,
      "Ġmachines": 5719,
      "Ġveggie": 5720,
      "Ġchains": 5721,
      "Ġrelaxes": 5722,
      "Ġdraped": 5723,
      "Ġcelebration": 5724,
      "Ġlifts": 5725,
      "Ġwaffles": 5726,
      "Ġtimes": 5727,
      "Ġbleachers": 5728,
      "Ġamerican": 5729,
      "Ġparallel": 5730,
      "omebody": 5731,
      "CT": 5732,
      "TLE": 5733,
      "book": 5734,
      "ners": 5735,
      "ney": 5736,
      "Ġsanta": 5737,
      "itch": 5738,
      "Ġbrus": 5739,
      "Ġcable": 5740,
      "Ġcram": 5741,
      "atic": 5742,
      "Ġrams": 5743,
      "Ġwatermel": 5744,
      "ĠFOR": 5745,
      "Ġsporting": 5746,
      "Ġstock": 5747,
      "Ġbreast": 5748,
      "Ġmarking": 5749,
      "Ġgreeting": 5750,
      "Ġpicked": 5751,
      "Ġflaming": 5752,
      "Ġstyled": 5753,
      "Ġquite": 5754,
      "lined": 5755,
      "Ġmakeup": 5756,
      "ĠElect": 5757,
      "Ġconsists": 5758,
      "Ġgazing": 5759,
      "Ġbegins": 5760,
      "ĠDecker": 5761,
      "Ġbarbecue": 5762,
      "Ġblueberries": 5763,
      "ĠSilver": 5764,
      "iamese": 5765,
      "kn": 5766,
      "mely": 5767,
      "Ġ&": 5768,
      "Ġer": 5769,
      "Ġome": 5770,
      "ĠAnt": 5771,
      "Ġcyclists": 5772,
      "Ġinstru": 5773,
      "Ġinstruction": 5774,
      "Ġfer": 5775,
      "eties": 5776,
      "Ġskull": 5777,
      "Ġroute": 5778,
      "undred": 5779,
      "Ġwallet": 5780,
      "aint": 5781,
      "ĠPast": 5782,
      "ĠFam": 5783,
      "Ġtiered": 5784,
      "Ġvarieties": 5785,
      "ĠDIS": 5786,
      "Ġdarkened": 5787,
      "ĠZE": 5788,
      "Ġmusical": 5789,
      "Ġopposing": 5790,
      "ĠBLUE": 5791,
      "Ġbundle": 5792,
      "Ġprojector": 5793,
      "ificial": 5794,
      "ĠDelta": 5795,
      "Ġpenguin": 5796,
      "ĠSpectators": 5797,
      "Ġpreparation": 5798,
      "ĠBENCH": 5799,
      "XT": 5800,
      "eler": 5801,
      "what": 5802,
      "xican": 5803,
      "Ġaim": 5804,
      "Ġpal": 5805,
      "Ġfill": 5806,
      "ises": 5807,
      "Ġgot": 5808,
      "onder": 5809,
      "rid": 5810,
      "Ġcoin": 5811,
      "ĠThey": 5812,
      "andom": 5813,
      "ĠSte": 5814,
      "Ġlens": 5815,
      "ĠMil": 5816,
      "ĠMEN": 5817,
      "ĠOlymp": 5818,
      "atory": 5819,
      "graph": 5820,
      "Ġcemet": 5821,
      "Ġamb": 5822,
      "Ġcrew": 5823,
      "Ġpaddles": 5824,
      "Ġframes": 5825,
      "Ġchoppy": 5826,
      "ILDING": 5827,
      "Ġexposed": 5828,
      "Ġpresents": 5829,
      "ĠItal": 5830,
      "Ġenjoys": 5831,
      "Ġicy": 5832,
      "ĠBUILDING": 5833,
      "Ġarriving": 5834,
      "Ġwrest": 5835,
      "Ġchange": 5836,
      "Ġemergency": 5837,
      "Ġcarnival": 5838,
      "YCLE": 5839,
      "ĠDESK": 5840,
      "Ġtulips": 5841,
      "Ġperfect": 5842,
      "ĠZEBR": 5843,
      "UG": 5844,
      "cot": 5845,
      "Ġaqu": 5846,
      "Ġoccup": 5847,
      "Ġsanding": 5848,
      "Ġbrand": 5849,
      "Ġpel": 5850,
      "Ġinvest": 5851,
      "Ġmor": 5852,
      "Ġdom": 5853,
      "omb": 5854,
      "Ġrod": 5855,
      "Ġboul": 5856,
      "ĠWay": 5857,
      "Ġsword": 5858,
      "Ġcamper": 5859,
      "ĠHigh": 5860,
      "estri": 5861,
      "Ġneckla": 5862,
      "ixed": 5863,
      "lights": 5864,
      "Ġglides": 5865,
      "Ġfollows": 5866,
      "ĠPlane": 5867,
      "Ġcharacters": 5868,
      "Ġbookshelves": 5869,
      "Ġbuffalo": 5870,
      "Ġextends": 5871,
      "Ġcountertops": 5872,
      "Ġstirring": 5873,
      "Ġregular": 5874,
      "ĠAnimals": 5875,
      "Ġtethered": 5876,
      "ĠBBQ": 5877,
      "cut": 5878,
      "oise": 5879,
      "Ġaler": 5880,
      "Ġtick": 5881,
      "Ġtelling": 5882,
      "Ġtarp": 5883,
      "Ġpant": 5884,
      "Ġfiled": 5885,
      "Ġhur": 5886,
      "Ġhook": 5887,
      "Ġlonely": 5888,
      "ĠTA": 5889,
      "ĠTow": 5890,
      "ĠTall": 5891,
      "aster": 5892,
      "used": 5893,
      "Ġkicks": 5894,
      "Ġsomewhat": 5895,
      "Ġtrainer": 5896,
      "Ġhorn": 5897,
      "Ġseven": 5898,
      "ĠBI": 5899,
      "ĠMOU": 5900,
      "ĠWA": 5901,
      "ĠCla": 5902,
      "ĠFri": 5903,
      "ĠOVER": 5904,
      "Ġbron": 5905,
      "ĠDark": 5906,
      "ĠHar": 5907,
      "Ġcurvy": 5908,
      "ĠEx": 5909,
      "inesses": 5910,
      "Ġtanger": 5911,
      "Ġcrashing": 5912,
      "Ġdoesn": 5913,
      "ĠGirls": 5914,
      "Ġtaxis": 5915,
      "Ġseason": 5916,
      "ippers": 5917,
      "ĠHappy": 5918,
      "Ġdamaged": 5919,
      "Ġtravelers": 5920,
      "Ġbutterfly": 5921,
      "Ġaccompan": 5922,
      "vation": 5923,
      "Ġoct": 5924,
      "Ġsight": 5925,
      "Ġbins": 5926,
      "ara": 5927,
      "Ġdeb": 5928,
      "ĠTw": 5929,
      "Ġnon": 5930,
      "Ġrounding": 5931,
      "Ġstrewn": 5932,
      "Ġgradu": 5933,
      "Ġbushel": 5934,
      "Ġbusinesses": 5935,
      "inder": 5936,
      "Ġbuckets": 5937,
      "Ġmote": 5938,
      "Ġskiiers": 5939,
      "Ġappe": 5940,
      "Ġjumped": 5941,
      "Ġknock": 5942,
      "Ġcameras": 5943,
      "ĠHome": 5944,
      "Ġcurly": 5945,
      "Ġpeers": 5946,
      "Ġofficial": 5947,
      "Ġentry": 5948,
      "ONG": 5949,
      "Ġsteamed": 5950,
      "Ġsupport": 5951,
      "ĠAirplanes": 5952,
      "ILING": 5953,
      "Ġawning": 5954,
      "Ġbalanced": 5955,
      "ĠCOURT": 5956,
      "Ġcucumber": 5957,
      "Ġvacant": 5958,
      "Ġextremely": 5959,
      "Ġrodeo": 5960,
      "Ġsprouts": 5961,
      "LASS": 5962,
      "looking": 5963,
      "Ġip": 5964,
      "Ġsid": 5965,
      "itan": 5966,
      "Ġmer": 5967,
      "Ġhoney": 5968,
      "Ġgad": 5969,
      "Ġstrong": 5970,
      "Ġcozy": 5971,
      "Ġrese": 5972,
      "adows": 5973,
      "amed": 5974,
      "Ġvi": 5975,
      "Ġvests": 5976,
      "ĠPO": 5977,
      "Ġmotorized": 5978,
      "ĠBri": 5979,
      "ĠMon": 5980,
      "Ġrandom": 5981,
      "Ġmoon": 5982,
      "ĠOR": 5983,
      "Ġflowing": 5984,
      "Ġmac": 5985,
      "Ġdrum": 5986,
      "Ġfriz": 5987,
      "Ġdecorating": 5988,
      "Ġnighttime": 5989,
      "Ġcarton": 5990,
      "Ġartificial": 5991,
      "berry": 5992,
      "Ġoverlooks": 5993,
      "Ġ20": 5994,
      "Ġmedic": 5995,
      "Ġpropellers": 5996,
      "Ġturqu": 5997,
      "Ġsniffs": 5998,
      "Ġfinish": 5999,
      "Ġburning": 6000,
      "ĠGIRL": 6001,
      "Ġcollege": 6002,
      "Ġborder": 6003,
      "Ġgarnish": 6004,
      "Ġnestled": 6005,
      "ĠBIRD": 6006,
      "Ġbrocolli": 6007,
      "MB": 6008,
      "SS": 6009,
      "nuts": 6010,
      "pipe": 6011,
      "zing": 6012,
      "Ġtide": 6013,
      "ith": 6014,
      "Ġwi": 6015,
      "rest": 6016,
      "Ġmiss": 6017,
      "Ġstones": 6018,
      "esting": 6019,
      "othered": 6020,
      "Ġkiss": 6021,
      "Ġplaque": 6022,
      "Ġgrow": 6023,
      "stal": 6024,
      "Ġbackhand": 6025,
      "ĠBar": 6026,
      "Ġtrek": 6027,
      "shaped": 6028,
      "Ġstriking": 6029,
      "Ġexiting": 6030,
      "Ġpeac": 6031,
      "Ġdeserts": 6032,
      "Ġaccident": 6033,
      "Ġdepartment": 6034,
      "ropol": 6035,
      "Ġolive": 6036,
      "Ġbelly": 6037,
      "Ġremoved": 6038,
      "ĠLOTS": 6039,
      "Ġwarming": 6040,
      "Ġlimes": 6041,
      "Ġhistorical": 6042,
      "ĠCanadian": 6043,
      "Ġarchitecture": 6044,
      "Ġevergreen": 6045,
      "ĠObama": 6046,
      "Ġomelet": 6047,
      "Ġmorning": 6048,
      "Ġgadget": 6049,
      "Ġturquoise": 6050,
      "dant": 6051,
      "tes": 6052,
      "turn": 6053,
      "Ġsells": 6054,
      "itor": 6055,
      "ĠAP": 6056,
      "Ġwig": 6057,
      "reme": 6058,
      "Ġlun": 6059,
      "lapid": 6060,
      "rict": 6061,
      "Ġgraph": 6062,
      "Ġgrabs": 6063,
      "Ġsmothered": 6064,
      "Ġflan": 6065,
      "airy": 6066,
      "Ġgive": 6067,
      "Ġpours": 6068,
      "Ġlip": 6069,
      "Ġwindy": 6070,
      "Ġpaste": 6071,
      "Ġrather": 6072,
      "Ġspices": 6073,
      "ified": 6074,
      "Ġkiteboarding": 6075,
      "Ġarched": 6076,
      "tock": 6077,
      "Ġmicrowaves": 6078,
      "Ġsubmer": 6079,
      "OWER": 6080,
      "ĠCommuter": 6081,
      "ĠSlices": 6082,
      "ĠSliced": 6083,
      "ĠCOMP": 6084,
      "eteria": 6085,
      "Ġattention": 6086,
      "Ġhomes": 6087,
      "Ġwatermelon": 6088,
      "lapidated": 6089,
      "50": 6090,
      "HING": 6091,
      "iator": 6092,
      "wise": 6093,
      "rets": 6094,
      "Ġmous": 6095,
      "Ġstars": 6096,
      "ĠSL": 6097,
      "Ġunderwear": 6098,
      "apers": 6099,
      "Ġpregn": 6100,
      "ĠIs": 6101,
      "ĠLAP": 6102,
      "ĠGREEN": 6103,
      "Ġmarker": 6104,
      "Ġmeet": 6105,
      "Ġmechan": 6106,
      "Ġpolit": 6107,
      "Ġnoses": 6108,
      "ĠStat": 6109,
      "rons": 6110,
      "Ġdirectional": 6111,
      "liners": 6112,
      "Ġearly": 6113,
      "ĠTRACK": 6114,
      "Ġlounges": 6115,
      "Ġbulld": 6116,
      "Ġdepicts": 6117,
      "ĠBeach": 6118,
      "Ġeverywhere": 6119,
      "Ġathlete": 6120,
      "Ġgarnished": 6121,
      "Ġflavored": 6122,
      "Ġnursing": 6123,
      "Ġrotten": 6124,
      "Ġcuddling": 6125,
      "ĠForce": 6126,
      "Ġescal": 6127,
      "Ġshredded": 6128,
      "Ġavocado": 6129,
      "Ġreferee": 6130,
      "ĠAntique": 6131,
      "Ġambul": 6132,
      "Ġsubmerged": 6133,
      "dges": 6134,
      "Ġblaz": 6135,
      "Ġweb": 6136,
      "Ġpale": 6137,
      "Ġcry": 6138,
      "Ġdun": 6139,
      "Ġlux": 6140,
      "estern": 6141,
      "unching": 6142,
      "opped": 6143,
      "using": 6144,
      "Ġskills": 6145,
      "Ġbatters": 6146,
      "Ġblows": 6147,
      "ĠBre": 6148,
      "ĠBACK": 6149,
      "rispy": 6150,
      "ĠMother": 6151,
      "ĠWor": 6152,
      "Ġbest": 6153,
      "Ġknow": 6154,
      "Ġpassed": 6155,
      "ĠHAND": 6156,
      "Ġracer": 6157,
      "ĠRe": 6158,
      "Ġspeeds": 6159,
      "Ġparticip": 6160,
      "Ġfacility": 6161,
      "Ġfound": 6162,
      "Ġcompete": 6163,
      "Ġrising": 6164,
      "ĠNEXT": 6165,
      "Ġslaw": 6166,
      "Ġhistoric": 6167,
      "Ġskyscrapers": 6168,
      "Ġeasy": 6169,
      "Ġhummingbird": 6170,
      "EARING": 6171,
      "Ġraspberries": 6172,
      "Ġdebris": 6173,
      "bled": 6174,
      "brush": 6175,
      "bread": 6176,
      "cul": 6177,
      "fruit": 6178,
      "feteria": 6179,
      "shes": 6180,
      "Ġsan": 6181,
      "Ġcraw": 6182,
      "ister": 6183,
      "Ġgated": 6184,
      "Ġtoday": 6185,
      "Ġstalk": 6186,
      "Ġnavy": 6187,
      "upe": 6188,
      "Ġtrailing": 6189,
      "Ġshoo": 6190,
      "station": 6191,
      "Ġlegged": 6192,
      "Ġcafeteria": 6193,
      "Ġmirrored": 6194,
      "ĠIM": 6195,
      "ĠLone": 6196,
      "Ġmetropol": 6197,
      "ĠDis": 6198,
      "Ġliner": 6199,
      "Ġboot": 6200,
      "Ġmilking": 6201,
      "Ġrugs": 6202,
      "Ġkittens": 6203,
      "Ġdrain": 6204,
      "Ġangry": 6205,
      "Ġindicates": 6206,
      "Ġsafari": 6207,
      "Ġdigging": 6208,
      "Ġrises": 6209,
      "ĠCommercial": 6210,
      "Ġmesh": 6211,
      "ĠTourists": 6212,
      "Ġbelongings": 6213,
      "Ġkiwi": 6214,
      "undreds": 6215,
      "Ġcemetery": 6216,
      "Ġpregnant": 6217,
      "ails": 6218,
      "iqu": 6219,
      "lane": 6220,
      "pher": 6221,
      "Ġking": 6222,
      "Ġest": 6223,
      "Ġque": 6224,
      "ingle": 6225,
      "Ġwines": 6226,
      "ready": 6227,
      "rofo": 6228,
      "Ġmilling": 6229,
      "alog": 6230,
      "alls": 6231,
      "urple": 6232,
      "Ġshady": 6233,
      "Ġyach": 6234,
      "Ġpicks": 6235,
      "ĠSAND": 6236,
      "Ġcarving": 6237,
      "Ġbusted": 6238,
      "Ġbuying": 6239,
      "airs": 6240,
      "ĠGlass": 6241,
      "Ġplated": 6242,
      "Ġridden": 6243,
      "Ġbricked": 6244,
      "ĠNumer": 6245,
      "Ġcrafts": 6246,
      "Ġwetsuits": 6247,
      "ĠAirways": 6248,
      "ĠTOGET": 6249,
      "Ġgentlemen": 6250,
      "Ġburnt": 6251,
      "Ġeverything": 6252,
      "Ġtorn": 6253,
      "Ġpushes": 6254,
      "Ġsnuggling": 6255,
      "Ġparents": 6256,
      "ĠGraffiti": 6257,
      "Ġexpression": 6258,
      "Ġcamouflage": 6259,
      "ĠDIFF": 6260,
      "AG": 6261,
      "dated": 6262,
      "lings": 6263,
      "lines": 6264,
      "mat": 6265,
      "pa": 6266,
      "sion": 6267,
      "reo": 6268,
      "Ġhid": 6269,
      "Ġlate": 6270,
      "Ġlion": 6271,
      "urity": 6272,
      "Ġchalk": 6273,
      "ĠPurple": 6274,
      "tles": 6275,
      "Ġleas": 6276,
      "ĠCal": 6277,
      "ĠCoc": 6278,
      "Ġdilapidated": 6279,
      "arian": 6280,
      "Ġguiding": 6281,
      "Ġknick": 6282,
      "Ġbagels": 6283,
      "ĠDes": 6284,
      "Ġpaperwork": 6285,
      "Ġlinens": 6286,
      "Ġshelter": 6287,
      "Ġmouths": 6288,
      "ĠONE": 6289,
      "Ġwireless": 6290,
      "Ġequestri": 6291,
      "ĠUMB": 6292,
      "Ġwrapping": 6293,
      "ENT": 6294,
      "Ġcracked": 6295,
      "ngth": 6296,
      "Ġcompetitive": 6297,
      "ĠBlurry": 6298,
      "Ġstudent": 6299,
      "Ġautumn": 6300,
      "Ġlifted": 6301,
      "Ġdotted": 6302,
      "Ġwok": 6303,
      "haired": 6304,
      "ĠTeen": 6305,
      "Ġsplashing": 6306,
      "Ġbumper": 6307,
      "Ġtechn": 6308,
      "Ġembracing": 6309,
      "Ġappetiz": 6310,
      "Ġultimate": 6311,
      "Ġalert": 6312,
      "Ġknocked": 6313,
      "Ġmedicine": 6314,
      "ĠTOGETHER": 6315,
      "ĠUMBRE": 6316,
      "LD": 6317,
      "UCK": 6318,
      "hich": 6319,
      "tage": 6320,
      "Ġsided": 6321,
      "lets": 6322,
      "Ġthen": 6323,
      "Ġdance": 6324,
      "ening": 6325,
      "Ġlas": 6326,
      "Ġnut": 6327,
      "ilding": 6328,
      "ilight": 6329,
      "Ġcola": 6330,
      "Ġbeat": 6331,
      "Ġbeers": 6332,
      "Ġropes": 6333,
      "Ġtabletop": 6334,
      "amon": 6335,
      "Ġvending": 6336,
      "ĠSide": 6337,
      "Ġrooms": 6338,
      "Ġalready": 6339,
      "ĠWEARING": 6340,
      "ĠOP": 6341,
      "door": 6342,
      "Ġclim": 6343,
      "Ġlovely": 6344,
      "Ġresid": 6345,
      "Ġcommun": 6346,
      "ĠJUM": 6347,
      "ICE": 6348,
      "Ġblocked": 6349,
      "Ġcondition": 6350,
      "Ġraises": 6351,
      "Ġtransporting": 6352,
      "Ġprocessor": 6353,
      "Ġgazelle": 6354,
      "Ġwashroom": 6355,
      "Ġsplash": 6356,
      "ĠArt": 6357,
      "ERENT": 6358,
      "Ġamidst": 6359,
      "Ġskyscraper": 6360,
      "ĠFLYING": 6361,
      "Ġinspecting": 6362,
      "Ġpretending": 6363,
      "Ġsmoothie": 6364,
      "Ġsexy": 6365,
      "ĠItalian": 6366,
      "Ġescalator": 6367,
      "rofoam": 6368,
      "gin": 6369,
      "oid": 6370,
      "oke": 6371,
      "rings": 6372,
      "ĠALL": 6373,
      "eries": 6374,
      "Ġinv": 6375,
      "Ġgoose": 6376,
      "Ġlanes": 6377,
      "ilies": 6378,
      "verted": 6379,
      "Ġplow": 6380,
      "Ġshadows": 6381,
      "Ġchat": 6382,
      "Ġbuss": 6383,
      "Ġforce": 6384,
      "Ġseeds": 6385,
      "Ġsandals": 6386,
      "Ġintric": 6387,
      "ĠCAKE": 6388,
      "ĠFrisbe": 6389,
      "Ġtrey": 6390,
      "Ġmoss": 6391,
      "ĠGLASS": 6392,
      "Ġdecorate": 6393,
      "Ġbottled": 6394,
      "ĠEight": 6395,
      "Ġpillars": 6396,
      "Ġpolicemen": 6397,
      "Ġstyl": 6398,
      "Ġdais": 6399,
      "Ġarchway": 6400,
      "Ġmagazines": 6401,
      "Ġjob": 6402,
      "Ġarrows": 6403,
      "Ġcherries": 6404,
      "Ġexamining": 6405,
      "Ġattending": 6406,
      "Ġdestination": 6407,
      "ĠSoccer": 6408,
      "Ġlettering": 6409,
      "ĠLIVING": 6410,
      "Ġathletic": 6411,
      "Ġadmiring": 6412,
      "Ġdescribe": 6413,
      "ĠVehicles": 6414,
      "Ġsquirrel": 6415,
      "ĠFamily": 6416,
      "Ġcrystal": 6417,
      "Ġmetropolitan": 6418,
      "ĠDIFFERENT": 6419,
      "ĠFrisbees": 6420,
      "KS": 6421,
      "come": 6422,
      "fu": 6423,
      "Ġwoo": 6424,
      "Ġfrisb": 6425,
      "Ġfaded": 6426,
      "Ġdome": 6427,
      "Ġgone": 6428,
      "Ġstate": 6429,
      "ict": 6430,
      "Ġlam": 6431,
      "anted": 6432,
      "Ġgrouping": 6433,
      "Ġotherwise": 6434,
      "Ġless": 6435,
      "Ġcact": 6436,
      "ĠBAN": 6437,
      "ĠWild": 6438,
      "Ġtriple": 6439,
      "Ġboxing": 6440,
      "Ġstored": 6441,
      "Ġremains": 6442,
      "Ġpatrol": 6443,
      "Ġdeckered": 6444,
      "Ġexotic": 6445,
      "Ġincline": 6446,
      "Ġhovering": 6447,
      "Ġsquares": 6448,
      "ĠDogs": 6449,
      "Ġenth": 6450,
      "Ġholders": 6451,
      "Ġreturns": 6452,
      "Ġbells": 6453,
      "Ġcaptured": 6454,
      "ĠSKY": 6455,
      "Ġsecurity": 6456,
      "Ġjockeys": 6457,
      "Ġpumpkins": 6458,
      "Ġpaneled": 6459,
      "Ġnecklace": 6460,
      "Ġbronze": 6461,
      "Ġambulance": 6462,
      "food": 6463,
      "gate": 6464,
      "iver": 6465,
      "pical": 6466,
      "Ġ8": 6467,
      "Ġais": 6468,
      "Ġtar": 6469,
      "ĠAROUND": 6470,
      "Ġpush": 6471,
      "Ġinc": 6472,
      "Ġmy": 6473,
      "Ġgown": 6474,
      "ala": 6475,
      "opus": 6476,
      "Ġneut": 6477,
      "erst": 6478,
      "Ġearth": 6479,
      "Ġdocks": 6480,
      "Ġyour": 6481,
      "ycling": 6482,
      "ctors": 6483,
      "Ġbacked": 6484,
      "Ġseed": 6485,
      "Ġlength": 6486,
      "ĠWOOD": 6487,
      "ĠCle": 6488,
      "ĠFed": 6489,
      "Ġlittered": 6490,
      "Ġdiag": 6491,
      "Ġsound": 6492,
      "Ġdaylight": 6493,
      "ĠHAS": 6494,
      "Ġwalked": 6495,
      "Ġpita": 6496,
      "pective": 6497,
      "Ġpurch": 6498,
      "Ġwheeler": 6499,
      "Ġexcept": 6500,
      "Ġhovers": 6501,
      "Ġgates": 6502,
      "Ġtrashcan": 6503,
      "ĠTrains": 6504,
      "Ġretail": 6505,
      "ĠJet": 6506,
      "Ġshould": 6507,
      "Ġcondu": 6508,
      "Ġ10": 6509,
      "Ġcalcul": 6510,
      "Ġstoplights": 6511,
      "Ġauto": 6512,
      "Ġlabel": 6513,
      "strip": 6514,
      "Ġcerem": 6515,
      "ĠCHAIR": 6516,
      "Ġadjusts": 6517,
      "Ġbundled": 6518,
      "Ġwaffle": 6519,
      "Ġnapping": 6520,
      "ĠCrowd": 6521,
      "innamon": 6522,
      "NDER": 6523,
      "Ġgrapefruit": 6524,
      "ĠMilitary": 6525,
      "Ġaccompanied": 6526,
      "ĠUMBRELL": 6527,
      "arent": 6528,
      "back": 6529,
      "hy": 6530,
      "piece": 6531,
      "rs": 6532,
      "zard": 6533,
      "Ġ9": 6534,
      "Ġaff": 6535,
      "Ġtilted": 6536,
      "Ġoak": 6537,
      "Ġsamp": 6538,
      "Ġwro": 6539,
      "erc": 6540,
      "Ġfist": 6541,
      "Ġmill": 6542,
      "Ġduff": 6543,
      "Ġgla": 6544,
      "enting": 6545,
      "Ġlat": 6546,
      "Ġlite": 6547,
      "usi": 6548,
      "Ġflips": 6549,
      "ĠSw": 6550,
      "Ġsnowsuit": 6551,
      "Ġbasic": 6552,
      "Ġairlines": 6553,
      "Ġoverg": 6554,
      "Ġheater": 6555,
      "Ġteal": 6556,
      "ĠOr": 6557,
      "ĠLIT": 6558,
      "Ġsunsh": 6559,
      "Ġcontest": 6560,
      "Ġcaboose": 6561,
      "Ġtelevisions": 6562,
      "Ġbarric": 6563,
      "Ġorch": 6564,
      "ize": 6565,
      "Ġhairy": 6566,
      "ĠChicken": 6567,
      "Ġmascot": 6568,
      "Ġformally": 6569,
      "bank": 6570,
      "Ġgrinds": 6571,
      "Ġtwilight": 6572,
      "Ġpuppies": 6573,
      "Ġsectional": 6574,
      "ĠRoom": 6575,
      "Ġradiator": 6576,
      "ĠBanana": 6577,
      "Ġfixture": 6578,
      "Ġgoalie": 6579,
      "Ġreclining": 6580,
      "ĠPassenger": 6581,
      "Ġbarely": 6582,
      "ĠAltered": 6583,
      "ĠSKIING": 6584,
      "ĠPlayer": 6585,
      "Ġhorizon": 6586,
      "Ġascending": 6587,
      "Ġvisitors": 6588,
      "Ġmannequin": 6589,
      "ĠFriends": 6590,
      "Ġfrizbee": 6591,
      "turned": 6592,
      "ĠIMAGE": 6593,
      "bucks": 6594,
      "cient": 6595,
      "hold": 6596,
      "iently": 6597,
      "nd": 6598,
      "oram": 6599,
      "uilding": 6600,
      "Ġtr": 6601,
      "itude": 6602,
      "Ġwonder": 6603,
      "Ġcinnamon": 6604,
      "Ġanim": 6605,
      "Ġanalog": 6606,
      "Ġfu": 6607,
      "Ġmama": 6608,
      "Ġtofu": 6609,
      "oman": 6610,
      "raut": 6611,
      "lable": 6612,
      "Ġwhis": 6613,
      "iche": 6614,
      "Ġske": 6615,
      "Ġfrog": 6616,
      "Ġvar": 6617,
      "ĠMc": 6618,
      "ĠWar": 6619,
      "ĠCup": 6620,
      "Ġspan": 6621,
      "Ġspark": 6622,
      "Ġenorm": 6623,
      "Ġsandwhich": 6624,
      "Ġbiking": 6625,
      "Ġsunflowers": 6626,
      "ĠYou": 6627,
      "Ġamuse": 6628,
      "Ġlapse": 6629,
      "cause": 6630,
      "ĠUp": 6631,
      "Ġstairway": 6632,
      "Ġfunction": 6633,
      "Ġaccess": 6634,
      "Ġclaw": 6635,
      "Ġjuic": 6636,
      "Ġreflects": 6637,
      "Ġcalves": 6638,
      "Ġextending": 6639,
      "Ġoddly": 6640,
      "ĠBeautiful": 6641,
      "ĠDecor": 6642,
      "Ġexamines": 6643,
      "Ġrecord": 6644,
      "Ġdivided": 6645,
      "ĠFruits": 6646,
      "PLAY": 6647,
      "Ġpencils": 6648,
      "ĠWIND": 6649,
      "Ġoctopus": 6650,
      "ĠBreak": 6651,
      "Ġhidden": 6652,
      "ĠCoca": 6653,
      "ĠOPEN": 6654,
      "ĠJUMPING": 6655,
      "Ġaisle": 6656,
      "Ġenormous": 6657,
      "cess": 6658,
      "hone": 6659,
      "ivers": 6660,
      "uis": 6661,
      "Ġtip": 6662,
      "Ġtired": 6663,
      "Ġwel": 6664,
      "Ġcane": 6665,
      "Ġdang": 6666,
      "Ġnamed": 6667,
      "olog": 6668,
      "Ġbeached": 6669,
      "Ġbecause": 6670,
      "ebe": 6671,
      "Ġgrain": 6672,
      "Ġwaling": 6673,
      "style": 6674,
      "Ġkits": 6675,
      "Ġwaterfront": 6676,
      "Ġairstrip": 6677,
      "Ġsurfboarding": 6678,
      "Ġjug": 6679,
      "ĠPot": 6680,
      "Ġsear": 6681,
      "Ġhedge": 6682,
      "ppost": 6683,
      "ĠCow": 6684,
      "ĠLo": 6685,
      "ĠGO": 6686,
      "ĠGold": 6687,
      "Ġplatters": 6688,
      "issor": 6689,
      "Ġhazy": 6690,
      "ĠNight": 6691,
      "Ġtypical": 6692,
      "Ġscenery": 6693,
      "Ġcandies": 6694,
      "Ġpackages": 6695,
      "Ġseem": 6696,
      "Ġwashed": 6697,
      "Ġfora": 6698,
      "Ġclad": 6699,
      "Ġgener": 6700,
      "Ġhandleb": 6701,
      "Ġadvertisements": 6702,
      "Ġburrit": 6703,
      "Ġradishes": 6704,
      "Ġowners": 6705,
      "Ġtaxiing": 6706,
      "Ġavai": 6707,
      "Ġeveryone": 6708,
      "Ġpresented": 6709,
      "ĠSMILING": 6710,
      "Ġrecliner": 6711,
      "Ġrobot": 6712,
      "ĠCanada": 6713,
      "GETABLE": 6714,
      "Ġpilot": 6715,
      "ĠMexican": 6716,
      "Ġroasted": 6717,
      "Ġgalloping": 6718,
      "ĠVEGETABLE": 6719,
      "Ġcitrus": 6720,
      "ĠGIRAFFE": 6721,
      "Ġwiping": 6722,
      "ĠDISPLAY": 6723,
      "Ġtangerines": 6724,
      "ĠCOMPUT": 6725,
      "Ġequestrian": 6726,
      "Ġlamppost": 6727,
      "Ġenthusi": 6728,
      "Ġceremony": 6729,
      "Ġamusement": 6730,
      "ĠBreakfast": 6731,
      "EP": 6732,
      "UFF": 6733,
      "WAY": 6734,
      "apped": 6735,
      "ead": 6736,
      "inery": 6737,
      "Ġwrist": 6738,
      "anse": 6739,
      "Ġcame": 6740,
      "Ġfas": 6741,
      "Ġhug": 6742,
      "Ġhooks": 6743,
      "Ġdots": 6744,
      "esame": 6745,
      "urgers": 6746,
      "uses": 6747,
      "usting": 6748,
      "Ġlaund": 6749,
      "ament": 6750,
      "Ġvent": 6751,
      "ĠPep": 6752,
      "ĠPart": 6753,
      "Ġlicks": 6754,
      "Ġheight": 6755,
      "ĠFLO": 6756,
      "Ġspars": 6757,
      "ago": 6758,
      "ĠOLD": 6759,
      "Ġmarkers": 6760,
      "Ġpatrons": 6761,
      "Ġmonster": 6762,
      "Ġshell": 6763,
      "Ġhawk": 6764,
      "ĠChocolate": 6765,
      "Ġpartial": 6766,
      "Ġvanilla": 6767,
      "Ġswims": 6768,
      "Ġfoal": 6769,
      "ISB": 6770,
      "Ġseafood": 6771,
      "Ġspinning": 6772,
      "Ġreadies": 6773,
      "ĠPHONE": 6774,
      "Ġshaved": 6775,
      "Ġpumpkin": 6776,
      "ĠPolar": 6777,
      "Ġwould": 6778,
      "Ġbarriers": 6779,
      "ĠFRISB": 6780,
      "Ġcreepy": 6781,
      "Ġhandicap": 6782,
      "Ġfuton": 6783,
      "Ġbouncing": 6784,
      "ĠWorkers": 6785,
      "Ġcramped": 6786,
      "Ġappearing": 6787,
      "Ġpeacock": 6788,
      "pherd": 6789,
      "ĠNumerous": 6790,
      "Ġneutral": 6791,
      "Ġavailable": 6792,
      "UB": 6793,
      "US": 6794,
      "bably": 6795,
      "col": 6796,
      "dgerator": 6797,
      "oro": 6798,
      "ough": 6799,
      "pit": 6800,
      "pine": 6801,
      "sized": 6802,
      "ther": 6803,
      "tower": 6804,
      "rees": 6805,
      "athered": 6806,
      "Ġofa": 6807,
      "Ġmur": 6808,
      "Ġhundreds": 6809,
      "Ġdad": 6810,
      "Ġgn": 6811,
      "Ġtourn": 6812,
      "opes": 6813,
      "Ġthread": 6814,
      "iles": 6815,
      "Ġchin": 6816,
      "Ġvane": 6817,
      "seat": 6818,
      "ugly": 6819,
      "Ġlives": 6820,
      "ĠBack": 6821,
      "ĠCooked": 6822,
      "Ġcourts": 6823,
      "ĠSeagull": 6824,
      "icking": 6825,
      "ĠHIGH": 6826,
      "rawn": 6827,
      "Ġexerc": 6828,
      "Ġflash": 6829,
      "Ġsubst": 6830,
      "Ġdistrict": 6831,
      "bbles": 6832,
      "ĠUNDER": 6833,
      "ucch": 6834,
      "ACE": 6835,
      "Ġpositions": 6836,
      "Ġpeeks": 6837,
      "Ġdragging": 6838,
      "Ġtanker": 6839,
      "Ġexpanse": 6840,
      "ĠTRUCK": 6841,
      "Ġcaptivity": 6842,
      "Ġremoving": 6843,
      "Ġtrolly": 6844,
      "zzarella": 6845,
      "Ġburner": 6846,
      "Ġsleigh": 6847,
      "Ġconversing": 6848,
      "Ġvendors": 6849,
      "Ġrecre": 6850,
      "Ġstormy": 6851,
      "Ġburners": 6852,
      "Ġfedora": 6853,
      "Ġrecording": 6854,
      "Ġinstrument": 6855,
      "yees": 6856,
      "Ġtroph": 6857,
      "Ġcontemporary": 6858,
      "ĠWorld": 6859,
      "Ġclimbs": 6860,
      "Ġsparsely": 6861,
      "Ġtournament": 6862,
      "fting": 6863,
      "ians": 6864,
      "the": 6865,
      "ties": 6866,
      "walks": 6867,
      "Ġtrot": 6868,
      "ĠAL": 6869,
      "Ġancient": 6870,
      "Ġhuddle": 6871,
      "Ġgang": 6872,
      "Ġstu": 6873,
      "Ġstay": 6874,
      "arded": 6875,
      "Ġdozens": 6876,
      "undown": 6877,
      "Ġplun": 6878,
      "Ġshine": 6879,
      "Ġpersonnel": 6880,
      "antic": 6881,
      "Ġvess": 6882,
      "Ġupwards": 6883,
      "ĠSC": 6884,
      "Ġraquet": 6885,
      "Ġsidecar": 6886,
      "ĠPres": 6887,
      "Ġwindm": 6888,
      "Ġscram": 6889,
      "Ġscissor": 6890,
      "Ġhanded": 6891,
      "orth": 6892,
      "Ġdem": 6893,
      "Ġflorets": 6894,
      "Ġmozzarella": 6895,
      "Ġcolum": 6896,
      "Ġchews": 6897,
      "Ġimport": 6898,
      "Ġmarching": 6899,
      "Ġstereo": 6900,
      "Ġways": 6901,
      "Ġpeach": 6902,
      "Ġworkstation": 6903,
      "ĠGroups": 6904,
      "quee": 6905,
      "ALK": 6906,
      "Ġretro": 6907,
      "coat": 6908,
      "Ġapproach": 6909,
      "Ġpractices": 6910,
      "Ġreflective": 6911,
      "Ġcasual": 6912,
      "Ġdrapes": 6913,
      "Ġhooded": 6914,
      "ĠBOAT": 6915,
      "Ġdelivering": 6916,
      "Ġcharging": 6917,
      "Ġremod": 6918,
      "Ġfinishing": 6919,
      "Ġfocused": 6920,
      "Ġmoment": 6921,
      "ĠFROM": 6922,
      "Ġarchitect": 6923,
      "Ġdropping": 6924,
      "Ġrenovated": 6925,
      "ĠBowl": 6926,
      "Ġhunched": 6927,
      "ĠOlympic": 6928,
      "Ġipod": 6929,
      "ucchini": 6930,
      "hop": 6931,
      "rin": 6932,
      "Ġbug": 6933,
      "Ġpers": 6934,
      "ream": 6935,
      "Ġinj": 6936,
      "Ġfine": 6937,
      "Ġmight": 6938,
      "Ġmice": 6939,
      "omy": 6940,
      "Ġreins": 6941,
      "Ġvine": 6942,
      "Ġsnap": 6943,
      "ĠSP": 6944,
      "ĠSqu": 6945,
      "ĠSouth": 6946,
      "Ġbuy": 6947,
      "ĠAnd": 6948,
      "Ġgift": 6949,
      "eech": 6950,
      "Ġcityscape": 6951,
      "rise": 6952,
      "ĠMIR": 6953,
      "ĠWind": 6954,
      "ĠCD": 6955,
      "Ġlitter": 6956,
      "Ġspir": 6957,
      "Ġspeech": 6958,
      "Ġfencing": 6959,
      "Ġbib": 6960,
      "Ġviews": 6961,
      "ĠLYING": 6962,
      "Ġrefridgerator": 6963,
      "Ġforehead": 6964,
      "Ġraining": 6965,
      "ĠYELL": 6966,
      "Ġsalon": 6967,
      "Ġstrips": 6968,
      "Ġpeak": 6969,
      "Ġflowery": 6970,
      "Ġengaging": 6971,
      "Ġsettings": 6972,
      "ĠANIM": 6973,
      "Ġbaseman": 6974,
      "Ġgarb": 6975,
      "Ġconcert": 6976,
      "Ġpackaged": 6977,
      "Ġwaste": 6978,
      "structed": 6979,
      "Ġbusinessman": 6980,
      "Ġpropell": 6981,
      "Ġwheelie": 6982,
      "ĠVariety": 6983,
      "Ġsections": 6984,
      "ĠToy": 6985,
      "Ġcomplex": 6986,
      "Ġnumeral": 6987,
      "Ġbandana": 6988,
      "Ġpopulated": 6989,
      "Ġlanguages": 6990,
      "Ġspaces": 6991,
      "ĠFIRE": 6992,
      "Ġornament": 6993,
      "Ġdestro": 6994,
      "ĠĠĠĠĠĠĠĠ": 6995,
      "Ġpressing": 6996,
      "Ġbeanie": 6997,
      "Ġsolar": 6998,
      "Ġranch": 6999,
      "Ġhandicapped": 7000,
      "Ġcongre": 7001,
      "Ġcurrently": 7002,
      "Ġponies": 7003,
      "Ġticket": 7004,
      "Ġgadgets": 7005,
      "Ġcrawling": 7006,
      "Ġcactus": 7007,
      "Ġovergrown": 7008,
      "ĠWINDOW": 7009,
      "ĠYELLOW": 7010,
      "00": 7011,
      "hift": 7012,
      "mes": 7013,
      "sk": 7014,
      "sed": 7015,
      "wor": 7016,
      "Ġwired": 7017,
      "Ġpud": 7018,
      "Ġfet": 7019,
      "Ġdanger": 7020,
      "orial": 7021,
      "ĠTE": 7022,
      "asts": 7023,
      "uters": 7024,
      "ica": 7025,
      "Ġcole": 7026,
      "Ġplum": 7027,
      "Ġparrots": 7028,
      "Ġlav": 7029,
      "Ġpoor": 7030,
      "Ġpoured": 7031,
      "Ġzucchini": 7032,
      "Ġwaist": 7033,
      "entr": 7034,
      "aneous": 7035,
      "ĠBirthday": 7036,
      "ĠBaked": 7037,
      "Ġaltered": 7038,
      "Ġslippers": 7039,
      "ĠCor": 7040,
      "Ġmosa": 7041,
      "ĠIm": 7042,
      "Ġvegetarian": 7043,
      "Ġstandard": 7044,
      "Ġsunlit": 7045,
      "Ġstuffing": 7046,
      "Ġguide": 7047,
      "Ġproper": 7048,
      "Ġloft": 7049,
      "Ġbarb": 7050,
      "estic": 7051,
      "Ġplantains": 7052,
      "ĠRail": 7053,
      "gram": 7054,
      "Ġhaircut": 7055,
      "Ġbreads": 7056,
      "Ġsalmon": 7057,
      "Ġpear": 7058,
      "autifully": 7059,
      "Ġcarried": 7060,
      "Ġwildebe": 7061,
      "ROR": 7062,
      "ĠDoor": 7063,
      "Ġmachinery": 7064,
      "Ġcaps": 7065,
      "ĠPLANE": 7066,
      "Ġgrooming": 7067,
      "Ġwarns": 7068,
      "ĠMotorc": 7069,
      "Ġdense": 7070,
      "ADY": 7071,
      "Ġdescending": 7072,
      "Ġreception": 7073,
      "Ġactiv": 7074,
      "Ġornaments": 7075,
      "Ġcompartments": 7076,
      "Ġidle": 7077,
      "ĠOutside": 7078,
      "ROWN": 7079,
      "ĠTruck": 7080,
      "Ġmarkings": 7081,
      "Ġflamingos": 7082,
      "Ġinstructions": 7083,
      "ĠZEBRAS": 7084,
      "Ġtrekking": 7085,
      "erstate": 7086,
      "Ġconductor": 7087,
      "Ġaffixed": 7088,
      "Ġsunshine": 7089,
      "Ġlaundry": 7090,
      "Ġimportant": 7091,
      "ĠANIMAL": 7092,
      "drawn": 7093,
      "fight": 7094,
      "oy": 7095,
      "Ġurn": 7096,
      "anna": 7097,
      "Ġfis": 7098,
      "Ġgull": 7099,
      "Ġni": 7100,
      "Ġnature": 7101,
      "ello": 7102,
      "eline": 7103,
      "ictor": 7104,
      "Ġcocon": 7105,
      "ĠSan": 7106,
      "Ġburied": 7107,
      "Ġlive": 7108,
      "ĠCO": 7109,
      "ĠCOL": 7110,
      "Ġhandled": 7111,
      "Ġunderground": 7112,
      "Ġteap": 7113,
      "Ġteac": 7114,
      "Ġbanquet": 7115,
      "Ġbunt": 7116,
      "Ġfilm": 7117,
      "Ġshowroom": 7118,
      "Ġgoble": 7119,
      "ĠGri": 7120,
      "Ġprobably": 7121,
      "ĠDR": 7122,
      "ĠDin": 7123,
      "Ġherded": 7124,
      "Ġpatiently": 7125,
      "Ġshells": 7126,
      "Ġexper": 7127,
      "Ġhoop": 7128,
      "Ġmarketplace": 7129,
      "Ġconcentr": 7130,
      "Ġtrails": 7131,
      "Ġmaster": 7132,
      "unging": 7133,
      "Ġstruct": 7134,
      "Ġjew": 7135,
      "Ġutensil": 7136,
      "Ġnoodle": 7137,
      "CHING": 7138,
      "Ġparasail": 7139,
      "Ġlevels": 7140,
      "Ġawaits": 7141,
      "Ġpencil": 7142,
      "Ġconsumption": 7143,
      "ĠTAKING": 7144,
      "ĠSLOP": 7145,
      "Ġbulldog": 7146,
      "Ġqueen": 7147,
      "Ġresidence": 7148,
      "Ġdaisies": 7149,
      "Ġcalculator": 7150,
      "Ġforaging": 7151,
      "Ġlivestock": 7152,
      "ĠMIRROR": 7153,
      "Ġmosaic": 7154,
      "VD": 7155,
      "ah": 7156,
      "of": 7157,
      "tail": 7158,
      "vd": 7159,
      "yal": 7160,
      "Ġ(": 7161,
      "Ġet": 7162,
      "Ġugly": 7163,
      "Ġsesame": 7164,
      "Ġbarge": 7165,
      "Ġberry": 7166,
      "Ġdu": 7167,
      "Ġginger": 7168,
      "Ġnasty": 7169,
      "iders": 7170,
      "Ġroam": 7171,
      "Ġripen": 7172,
      "Ġgrove": 7173,
      "Ġdownward": 7174,
      "Ġvans": 7175,
      "ĠSl": 7176,
      "ĠSomebody": 7177,
      "ĠSingle": 7178,
      "boards": 7179,
      "Ġpokes": 7180,
      "Ġelev": 7181,
      "ĠPit": 7182,
      "ĠBOW": 7183,
      "ĠBIG": 7184,
      "Ġslanted": 7185,
      "ĠCa": 7186,
      "Ġtails": 7187,
      "Ġunders": 7188,
      "agie": 7189,
      "Ġbridle": 7190,
      "Ġdiaper": 7191,
      "Ġfilthy": 7192,
      "ĠOver": 7193,
      "umpled": 7194,
      "aced": 7195,
      "ĠHallow": 7196,
      "Ġflowering": 7197,
      "Ġspec": 7198,
      "Ġspewing": 7199,
      "ĠINSIDE": 7200,
      "Ġpacking": 7201,
      "Ġwedge": 7202,
      "Ġblooming": 7203,
      "Ġcrab": 7204,
      "ĠDozens": 7205,
      "Ġcloths": 7206,
      "Ġglow": 7207,
      "Ġmakeshift": 7208,
      "Ġdepicted": 7209,
      "Ġcushions": 7210,
      "Ġneedle": 7211,
      "Ġcarefully": 7212,
      "Ġpeacefully": 7213,
      "market": 7214,
      "Ġfleet": 7215,
      "trak": 7216,
      "Ġcroissant": 7217,
      "Ġvertical": 7218,
      "ĠBIKE": 7219,
      "ĠFLOOR": 7220,
      "Ġsubstance": 7221,
      "ĠHalloween": 7222,
      "TH": 7223,
      "ek": 7224,
      "fy": 7225,
      "si": 7226,
      "inary": 7227,
      "Ġcables": 7228,
      "Ġtheater": 7229,
      "Ġann": 7230,
      "Ġdairy": 7231,
      "Ġga": 7232,
      "Ġgor": 7233,
      "omas": 7234,
      "oring": 7235,
      "riotic": 7236,
      "Ġyummy": 7237,
      "ĠSW": 7238,
      "ĠSail": 7239,
      "Ġsnowing": 7240,
      "Ġrap": 7241,
      "ĠAng": 7242,
      "ieces": 7243,
      "ĠBROWN": 7244,
      "ĠCOW": 7245,
      "Ġenough": 7246,
      "play": 7247,
      "Ġfences": 7248,
      "ĠGo": 7249,
      "Ġcamel": 7250,
      "Ġproce": 7251,
      "Ġadded": 7252,
      "Ġhighchair": 7253,
      "Ġlinen": 7254,
      "Ġattach": 7255,
      "Ġpanoram": 7256,
      "ĠChina": 7257,
      "Ġpeaches": 7258,
      "Ġhoagie": 7259,
      "Ġobsc": 7260,
      "Ġsquats": 7261,
      "Ġlandscap": 7262,
      "ĠUmb": 7263,
      "Ġteamm": 7264,
      "Ġbloss": 7265,
      "ĠBoat": 7266,
      "ĠDough": 7267,
      "Ġhamm": 7268,
      "Ġhousing": 7269,
      "Ġgrilling": 7270,
      "ILL": 7271,
      "Ġcharger": 7272,
      "Ġtossed": 7273,
      "Ġinstead": 7274,
      "Ġcustomer": 7275,
      "Ġproduct": 7276,
      "Ġtrimmed": 7277,
      "ĠArmy": 7278,
      "Ġsilhouet": 7279,
      "Ġsnuggled": 7280,
      "Ġchannel": 7281,
      "ccupied": 7282,
      "ĠHands": 7283,
      "Ġsupermarket": 7284,
      "Ġbiscuits": 7285,
      "Ġscrub": 7286,
      "Ġcrocheted": 7287,
      "Ġstockings": 7288,
      "Ġblazer": 7289,
      "Ġestab": 7290,
      "ĠCOMPUTER": 7291,
      "ĠUmbrella": 7292,
      "FUL": 7293,
      "ham": 7294,
      "lift": 7295,
      "nut": 7296,
      "occupied": 7297,
      "wa": 7298,
      "Ġtier": 7299,
      "Ġsuck": 7300,
      "Ġfell": 7301,
      "rail": 7302,
      "ckled": 7303,
      "ckey": 7304,
      "Ġcoaster": 7305,
      "Ġbeautifully": 7306,
      "Ġchill": 7307,
      "Ġchinese": 7308,
      "amel": 7309,
      "Ġsidewalks": 7310,
      "Ġhash": 7311,
      "Ġoverturned": 7312,
      "Ġlego": 7313,
      "Ġweathered": 7314,
      "ĠBAB": 7315,
      "Ġboarded": 7316,
      "ĠME": 7317,
      "Ġrat": 7318,
      "Ġrally": 7319,
      "Ġspring": 7320,
      "ape": 7321,
      "Ġheadband": 7322,
      "Ġheadlights": 7323,
      "Ġclip": 7324,
      "Ġproud": 7325,
      "Ġstoves": 7326,
      "Ġknacks": 7327,
      "Ġbarber": 7328,
      "Ġhousehold": 7329,
      "arters": 7330,
      "Ġsalt": 7331,
      "Ġpeaking": 7332,
      "Ġhockey": 7333,
      "Ġspeaks": 7334,
      "Ġlands": 7335,
      "Ġeyed": 7336,
      "ĠSTUFF": 7337,
      "Ġrooft": 7338,
      "Ġdepar": 7339,
      "Ġmedian": 7340,
      "Ġdeliver": 7341,
      "usky": 7342,
      "ĠSUIT": 7343,
      "Ġcheeses": 7344,
      "Ġcombing": 7345,
      "ĊĊĊĊ": 7346,
      "VERAL": 7347,
      "Ġflavors": 7348,
      "Ġoxen": 7349,
      "ĠiPhone": 7350,
      "ĠSEVERAL": 7351,
      "Ġnuzzling": 7352,
      "Ġyacht": 7353,
      "Ġstylized": 7354,
      "ĠLITTLE": 7355,
      "ĠGOING": 7356,
      "ĠFRISBEE": 7357,
      "Ġarchitectural": 7358,
      "Ġdestroyed": 7359,
      "Ġstructures": 7360,
      "Ġrapids": 7361,
      "Ex": 7362,
      "NER": 7363,
      "TS": 7364,
      "ULL": 7365,
      "je": 7366,
      "shed": 7367,
      "Ġ-": 7368,
      "Ġiv": 7369,
      "Ġaboard": 7370,
      "Ġaffe": 7371,
      "Ġcrus": 7372,
      "erk": 7373,
      "isted": 7374,
      "Ġding": 7375,
      "Ġtoned": 7376,
      "Ġlunging": 7377,
      "rab": 7378,
      "Ġnine": 7379,
      "icans": 7380,
      "Ġreact": 7381,
      "ffice": 7382,
      "oodle": 7383,
      "Ġshack": 7384,
      "ĠSiamese": 7385,
      "Ġsigning": 7386,
      "Ġbubble": 7387,
      "ĠPan": 7388,
      "Ġlips": 7389,
      "Ġmotorboat": 7390,
      "ented": 7391,
      "ĠBuilding": 7392,
      "Ġalpine": 7393,
      "Ġlightly": 7394,
      "Ġdrizz": 7395,
      "Ġviewer": 7396,
      "Ġbroad": 7397,
      "arium": 7398,
      "Ġcontact": 7399,
      "ĠDE": 7400,
      "ĠDirt": 7401,
      "ĠHOT": 7402,
      "Ġtaller": 7403,
      "tenance": 7404,
      "Ġpatriotic": 7405,
      "ĠRow": 7406,
      "Ġhalfway": 7407,
      "Ġamaz": 7408,
      "Ġlayed": 7409,
      "Ġworked": 7410,
      "Ġclothed": 7411,
      "Ġstylish": 7412,
      "roadway": 7413,
      "bbling": 7414,
      "Ġpacks": 7415,
      "ĠSkate": 7416,
      "Ġexterior": 7417,
      "Ġsorts": 7418,
      "ĠMulti": 7419,
      "Ġstudying": 7420,
      "Ġcaptive": 7421,
      "Ġhamburgers": 7422,
      "Ġtook": 7423,
      "Ġwander": 7424,
      "Ġornamental": 7425,
      "Ġtattoos": 7426,
      "ĠAIRPL": 7427,
      "Ġblades": 7428,
      "Ġcontraption": 7429,
      "Ġrhino": 7430,
      "Ġemploy": 7431,
      "ĠMOTORC": 7432,
      "Ġinstructor": 7433,
      "Ġpolitical": 7434,
      "Ġleashes": 7435,
      "Ġintricate": 7436,
      "Ġcolumns": 7437,
      "ĠSquare": 7438,
      "ĠDoorway": 7439,
      "Ġactivities": 7440,
      "Ġteapot": 7441,
      "ĠBABY": 7442,
      "IES": 7443,
      "ORE": 7444,
      "The": 7445,
      "ihua": 7446,
      "not": 7447,
      "press": 7448,
      "rm": 7449,
      "vas": 7450,
      "Ġver": 7451,
      "atian": 7452,
      "Ġhides": 7453,
      "Ġstages": 7454,
      "ĠTREE": 7455,
      "irgin": 7456,
      "rier": 7457,
      "olding": 7458,
      "Ġrig": 7459,
      "Ġcho": 7460,
      "ston": 7461,
      "epad": 7462,
      "ĠPublic": 7463,
      "Ġcave": 7464,
      "ĠMet": 7465,
      "ĠWell": 7466,
      "ĠFla": 7467,
      "ĠFront": 7468,
      "Ġscra": 7469,
      "Ġteens": 7470,
      "Ġenc": 7471,
      "ĠOriental": 7472,
      "Ġpreform": 7473,
      "fficult": 7474,
      "dock": 7475,
      "ĠLIGHT": 7476,
      "uggling": 7477,
      "Ġkno": 7478,
      "Ġserver": 7479,
      "Ġattack": 7480,
      "Ġsalsa": 7481,
      "Ġdocking": 7482,
      "Ġpauses": 7483,
      "Ġbutcher": 7484,
      "almatian": 7485,
      "Ġchecker": 7486,
      "Ġmusc": 7487,
      "Ġtwent": 7488,
      "Ġglider": 7489,
      "Ġmitts": 7490,
      "Ġturb": 7491,
      "Ġturtle": 7492,
      "Ġexpired": 7493,
      "Ġtosses": 7494,
      "flower": 7495,
      "Ġcranes": 7496,
      "Ġtaste": 7497,
      "Ġmaintain": 7498,
      "Ġreceive": 7499,
      "ratul": 7500,
      "Ġwoven": 7501,
      "ĠEngland": 7502,
      "Ġthose": 7503,
      "ĠSKATEBOARD": 7504,
      "ĠInterior": 7505,
      "Ġathletes": 7506,
      "Ġhorizont": 7507,
      "ĠStarbucks": 7508,
      "Ġpelican": 7509,
      "Ġpantry": 7510,
      "Ġshooting": 7511,
      "Ġwooly": 7512,
      "Ġburrito": 7513,
      "orous": 7514,
      "Ġmurky": 7515,
      "Ġestablish": 7516,
      "Ġaffection": 7517,
      "ihuahua": 7518,
      "mers": 7519,
      "po": 7520,
      "whe": 7521,
      "Ġtil": 7522,
      "Ġoat": 7523,
      "Ġsell": 7524,
      "Ġping": 7525,
      "lect": 7526,
      "Ġtherm": 7527,
      "Ġdiced": 7528,
      "Ġlant": 7529,
      "ĠTables": 7530,
      "Ġnook": 7531,
      "utter": 7532,
      "Ġroot": 7533,
      "Ġgrave": 7534,
      "Ġchanging": 7535,
      "Ġbuds": 7536,
      "Ġbackseat": 7537,
      "Ġtoilette": 7538,
      "Ġconv": 7539,
      "ĠThose": 7540,
      "ĠBroadway": 7541,
      "ĠMountain": 7542,
      "Ġinterstate": 7543,
      "ĠWh": 7544,
      "Ġrink": 7545,
      "ĠCute": 7546,
      "ĠCake": 7547,
      "Ġbrowns": 7548,
      "orted": 7549,
      "Ġswamp": 7550,
      "Ġswift": 7551,
      "Ġfireman": 7552,
      "Ġdifficult": 7553,
      "ĠOCE": 7554,
      "iforn": 7555,
      "Ġproje": 7556,
      "Ġcrowds": 7557,
      "ĠDri": 7558,
      "ĠDVD": 7559,
      "Ġcontrolled": 7560,
      "Ġmarks": 7561,
      "othic": 7562,
      "ĠRV": 7563,
      "ĠRef": 7564,
      "ĠRoman": 7565,
      "Ġhello": 7566,
      "Ġpaneling": 7567,
      "lica": 7568,
      "Ġsalads": 7569,
      "ĠOFF": 7570,
      "lender": 7571,
      "Ġstyles": 7572,
      "Ġpretz": 7573,
      "ensive": 7574,
      "AST": 7575,
      "Ġstrap": 7576,
      "ICH": 7577,
      "Ġcasting": 7578,
      "meal": 7579,
      "Ġsepia": 7580,
      "Ġcertain": 7581,
      "Ġobserve": 7582,
      "ĠBusy": 7583,
      "Ġbrass": 7584,
      "Ġunused": 7585,
      "Ġfryer": 7586,
      "ĠCARS": 7587,
      "Ġsauerk": 7588,
      "ĠSandwiches": 7589,
      "Ġcuriously": 7590,
      "ĠPlayers": 7591,
      "Ġhearts": 7592,
      "ĠBicycles": 7593,
      "Ġspreads": 7594,
      "ĠBedroom": 7595,
      "ĠElectronic": 7596,
      "Ġaquarium": 7597,
      "Ġboulders": 7598,
      "ĠStatue": 7599,
      "ĠTRACKS": 7600,
      "ĠUMBRELLA": 7601,
      "Ġhandlebars": 7602,
      "Ġrecreational": 7603,
      "Ġelevator": 7604,
      "ĠBOWL": 7605,
      "Ġhammock": 7606,
      "ĠOCEAN": 7607,
      "ifornia": 7608,
      "HERE": 7609,
      "dry": 7610,
      "lor": 7611,
      "inating": 7612,
      "Ġbone": 7613,
      "Ġbring": 7614,
      "Ġcant": 7615,
      "Ġcris": 7616,
      "Ġfind": 7617,
      "Ġfold": 7618,
      "ene": 7619,
      "Ġtot": 7620,
      "ĠTooth": 7621,
      "elve": 7622,
      "ards": 7623,
      "ĠSuit": 7624,
      "Ġbases": 7625,
      "Ġmotes": 7626,
      "ĠPieces": 7627,
      "Ġclocktower": 7628,
      "Ġwak": 7629,
      "Ġwavy": 7630,
      "ĠWest": 7631,
      "Ġthroughout": 7632,
      "ĠCats": 7633,
      "aps": 7634,
      "Ġcolla": 7635,
      "Ġcolumn": 7636,
      "Ġprey": 7637,
      "Ġstandup": 7638,
      "Ġbroth": 7639,
      "aces": 7640,
      "Ġunt": 7641,
      "Ġloves": 7642,
      "Ġraces": 7643,
      "Ġsleepy": 7644,
      "Ġrowboat": 7645,
      "ĠVase": 7646,
      "Ġgreet": 7647,
      "auty": 7648,
      "Ġlayers": 7649,
      "Ġpaying": 7650,
      "Ġfamous": 7651,
      "born": 7652,
      "Ġlefto": 7653,
      "Ġgloomy": 7654,
      "Ġquaint": 7655,
      "Ġchecked": 7656,
      "Ġcrazy": 7657,
      "ETHING": 7658,
      "Ġgathers": 7659,
      "Ġentire": 7660,
      "Ġhammer": 7661,
      "IRT": 7662,
      "Ġmodified": 7663,
      "Ġtrailers": 7664,
      "Ġmisses": 7665,
      "Ġsurroundings": 7666,
      "ĠSkateboarders": 7667,
      "Ġribbons": 7668,
      "Ġmaintenance": 7669,
      "Ġfairly": 7670,
      "Ġplank": 7671,
      "Ġarrive": 7672,
      "Ġdivider": 7673,
      "ĠLeague": 7674,
      "ĠSOMETHING": 7675,
      "Ġblueberry": 7676,
      "Ġextreme": 7677,
      "IEW": 7678,
      "Ġassembly": 7679,
      "Ġdemonstration": 7680,
      "Ġspreading": 7681,
      "Ġbrushed": 7682,
      "Ġinvestigating": 7683,
      "Ġfrisby": 7684,
      "Ġwrought": 7685,
      "Ġanimated": 7686,
      "Ġdangling": 7687,
      "ĠSeagulls": 7688,
      "Ġplunger": 7689,
      "ĠPresident": 7690,
      "ĠPitcher": 7691,
      "Ġunderside": 7692,
      "Ġemployee": 7693,
      "ĠMOTORCYCLE": 7694,
      "VES": 7695,
      "WICH": 7696,
      "cis": 7697,
      "cell": 7698,
      "down": 7699,
      "kia": 7700,
      "nas": 7701,
      "post": 7702,
      "tel": 7703,
      "well": 7704,
      "Ġtit": 7705,
      "Ġsigh": 7706,
      "Ġwid": 7707,
      "Ġpoodle": 7708,
      "Ġtone": 7709,
      "Ġstalks": 7710,
      "opard": 7711,
      "iddle": 7712,
      "Ġcoated": 7713,
      "Ġbeam": 7714,
      "eburger": 7715,
      "Ġboiled": 7716,
      "Ġyear": 7717,
      "Ġven": 7718,
      "stract": 7719,
      "Ġplayfully": 7720,
      "Ġcombo": 7721,
      "Ġbackside": 7722,
      "ĠPC": 7723,
      "ĠMain": 7724,
      "ĠMini": 7725,
      "ĠCut": 7726,
      "ĠCON": 7727,
      "ĠFather": 7728,
      "Ġgoers": 7729,
      "Ġhyd": 7730,
      "dog": 7731,
      "ĠLE": 7732,
      "Ġunb": 7733,
      "Ġprotru": 7734,
      "ĠHE": 7735,
      "ĠTHEIR": 7736,
      "ustral": 7737,
      "Ġwhose": 7738,
      "ĠVIEW": 7739,
      "ĠEld": 7740,
      "Ġseeing": 7741,
      "Ġpaddock": 7742,
      "Ġswimsuit": 7743,
      "Ġrounded": 7744,
      "ĠAsia": 7745,
      "OTH": 7746,
      "Ġceilings": 7747,
      "Ġladen": 7748,
      "Ġmodels": 7749,
      "Ġfollow": 7750,
      "ĠAirport": 7751,
      "Ġstreamers": 7752,
      "Ġgroomed": 7753,
      "Ġglaze": 7754,
      "Ġeyeglasses": 7755,
      "Ġ12": 7756,
      "Ġpatterns": 7757,
      "Ġlifegu": 7758,
      "ELF": 7759,
      "Ġmagnet": 7760,
      "ĠITS": 7761,
      "Ġlearn": 7762,
      "Ġkayaks": 7763,
      "Ġsleeve": 7764,
      "Ġminimal": 7765,
      "Ġbordered": 7766,
      "ĠLego": 7767,
      "amsung": 7768,
      "Ġidly": 7769,
      "ĠOutdoor": 7770,
      "Ġblade": 7771,
      "Ġtongs": 7772,
      "Ġrhin": 7773,
      "Ġemployees": 7774,
      "ĠAmtrak": 7775,
      "known": 7776,
      "Ġwrestling": 7777,
      "ĠClaus": 7778,
      "Ġgraduation": 7779,
      "Ġlunges": 7780,
      "iques": 7781,
      "ĠSANDWICH": 7782,
      "ĠCalifornia": 7783,
      "Ġappetizers": 7784,
      "Ġcommunity": 7785,
      "Ġtrotting": 7786,
      "Ġjewel": 7787,
      "Ġsauerkraut": 7788,
      "Donal": 7789,
      "dale": 7790,
      "filled": 7791,
      "mo": 7792,
      "net": 7793,
      "oked": 7794,
      "Ġaward": 7795,
      "Ġtack": 7796,
      "Ġsund": 7797,
      "Ġsquee": 7798,
      "Ġbake": 7799,
      "Ġwrong": 7800,
      "ances": 7801,
      "roning": 7802,
      "Ġere": 7803,
      "Ġshark": 7804,
      "Ġouthouse": 7805,
      "Ġoutdated": 7806,
      "Ġbust": 7807,
      "stick": 7808,
      "Ġgifts": 7809,
      "Ġleopard": 7810,
      "Ġzo": 7811,
      "Ġconstructed": 7812,
      "ĠBread": 7813,
      "ĠBOO": 7814,
      "Ġshepherd": 7815,
      "ĠFran": 7816,
      "Ġbrownies": 7817,
      "Ġlighter": 7818,
      "ifying": 7819,
      "Ġpreser": 7820,
      "Ġtriangle": 7821,
      "Ġsafe": 7822,
      "Ġarts": 7823,
      "Ġunoccupied": 7824,
      "Ġunknown": 7825,
      "Ġprof": 7826,
      "INE": 7827,
      "Ġknot": 7828,
      "Ġcabs": 7829,
      "Ġpitches": 7830,
      "clock": 7831,
      "Ġcanvas": 7832,
      "ĠRUN": 7833,
      "ĠNavy": 7834,
      "Ġwheat": 7835,
      "ĠVictor": 7836,
      "Ġnovel": 7837,
      "Ġblank": 7838,
      "Ġpeer": 7839,
      "Ġpeels": 7840,
      "Ġstates": 7841,
      "Ġpartition": 7842,
      "ensely": 7843,
      "Ġquarters": 7844,
      "OUR": 7845,
      "Ġleafless": 7846,
      "Ġbushy": 7847,
      "ĠATV": 7848,
      "Ġpresenting": 7849,
      "Ġlaughs": 7850,
      "Ġstarts": 7851,
      "Ġnewspapers": 7852,
      "Ġreplica": 7853,
      "Ġburgers": 7854,
      "ĠShot": 7855,
      "ĠShirt": 7856,
      "Ġbrace": 7857,
      "Ġsucc": 7858,
      "Ġsweep": 7859,
      "Ġrecently": 7860,
      "Ġregion": 7861,
      "ĠSnowboarders": 7862,
      "Ġnightstands": 7863,
      "ĠCOMING": 7864,
      "marine": 7865,
      "ĠBowls": 7866,
      "Ġfoamy": 7867,
      "ĠSOMEONE": 7868,
      "Ġdiscussing": 7869,
      "Ġscoop": 7870,
      "Ġmaneuver": 7871,
      "kiing": 7872,
      "Ġmerch": 7873,
      "Ġresemb": 7874,
      "Ġgraphic": 7875,
      "Ġmechanical": 7876,
      "ĠDesk": 7877,
      "Ġtechnolog": 7878,
      "ĠBANAN": 7879,
      "Ġskelet": 7880,
      "Ġjuicer": 7881,
      "ĠVEGETABLES": 7882,
      "Ġperspective": 7883,
      "ĠImage": 7884,
      "Ġestablishment": 7885,
      "AZ": 7886,
      "TO": 7887,
      "THER": 7888,
      "ae": 7889,
      "aul": 7890,
      "Ġage": 7891,
      "Ġti": 7892,
      "Ġtell": 7893,
      "itti": 7894,
      "Ġbitten": 7895,
      "rep": 7896,
      "Ġcrying": 7897,
      "Ġfellow": 7898,
      "Ġlic": 7899,
      "Ġstaff": 7900,
      "ĠTOWER": 7901,
      "icular": 7902,
      "igious": 7903,
      "Ġcoupe": 7904,
      "Ġbeauty": 7905,
      "Ġlaunch": 7906,
      "Ġbatch": 7907,
      "Ġvines": 7908,
      "ĠSer": 7909,
      "ĠSomething": 7910,
      "Ġcaramel": 7911,
      "Ġparks": 7912,
      "Ġairliners": 7913,
      "Ġherds": 7914,
      "Ġlizard": 7915,
      "Ġoveralls": 7916,
      "Ġconverted": 7917,
      "ĠBra": 7918,
      "ĠBot": 7919,
      "ĠBag": 7920,
      "Ġshears": 7921,
      "Ġrundown": 7922,
      "ĠFarm": 7923,
      "Ġboating": 7924,
      "ĠGU": 7925,
      "IND": 7926,
      "REN": 7927,
      "Ġsteal": 7928,
      "Ġpanting": 7929,
      "ĠStates": 7930,
      "Ġperformance": 7931,
      "inton": 7932,
      "Ġshovel": 7933,
      "ĠKing": 7934,
      "ĠKid": 7935,
      "ĠKreme": 7936,
      "Ġfeature": 7937,
      "Ġstyrofoam": 7938,
      "Ġnewborn": 7939,
      "ĠAREA": 7940,
      "Ġanticip": 7941,
      "Ġgrind": 7942,
      "Ġironing": 7943,
      "Ġabund": 7944,
      "Ġmicrophones": 7945,
      "ĠPLAYER": 7946,
      "Ġlabels": 7947,
      "Ġalleyway": 7948,
      "Ġcheeseburger": 7949,
      "Ġgroceries": 7950,
      "ĠIndia": 7951,
      "Ġrecipe": 7952,
      "ĠCOUPLE": 7953,
      "Ġwreath": 7954,
      "Ġcompanion": 7955,
      "ĠPhotograph": 7956,
      "EEP": 7957,
      "ĠChef": 7958,
      "Ġrobes": 7959,
      "Ġfixed": 7960,
      "Ġnavig": 7961,
      "Ġmemorial": 7962,
      "Ġcrumbs": 7963,
      "ĠQue": 7964,
      "Ġhours": 7965,
      "Ġmeatballs": 7966,
      "Ġtwigs": 7967,
      "Ġflanked": 7968,
      "Ġchatting": 7969,
      "ĠMcDonal": 7970,
      "Ġinjured": 7971,
      "Ġspiral": 7972,
      "Ġpropellor": 7973,
      "ĠAIRPLANE": 7974,
      "Ġoatmeal": 7975,
      "Ġprojection": 7976,
      "dryer": 7977,
      "ĠElderly": 7978,
      "Ġjewelry": 7979,
      "bil": 7980,
      "mble": 7981,
      "Ġast": 7982,
      "Ġable": 7983,
      "Ġtshirt": 7984,
      "Ġoar": 7985,
      "Ġsure": 7986,
      "ĠAustral": 7987,
      "Ġpong": 7988,
      "Ġinner": 7989,
      "Ġhusky": 7990,
      "Ġgig": 7991,
      "omber": 7992,
      "unks": 7993,
      "Ġnorm": 7994,
      "Ġmang": 7995,
      "icles": 7996,
      "Ġcoaches": 7997,
      "Ġbeads": 7998,
      "Ġeffe": 7999,
      "atee": 8000,
      "Ġvers": 8001,
      "ĠSub": 8002,
      "Ġblown": 8003,
      "Ġbud": 8004,
      "Ġloose": 8005,
      "Ġleast": 8006,
      "Ġzomb": 8007,
      "Ġcouples": 8008,
      "Ġconven": 8009,
      "ĠMus": 8010,
      "ĠWine": 8011,
      "ĠWALL": 8012,
      "ĠWhat": 8013,
      "ĠFlo": 8014,
      "Ġscall": 8015,
      "Ġveg": 8016,
      "Ġspraw": 8017,
      "Ġlivingroom": 8018,
      "Ġfirefight": 8019,
      "Ġsoars": 8020,
      "ĠOTHER": 8021,
      "Ġmount": 8022,
      "Ġtricycle": 8023,
      "Ġhitched": 8024,
      "Ġsunb": 8025,
      "acy": 8026,
      "Ġboxed": 8027,
      "Ġprogram": 8028,
      "Ġlock": 8029,
      "Ġstovet": 8030,
      "ustr": 8031,
      "shopped": 8032,
      "Ġcurls": 8033,
      "Ġallowed": 8034,
      "hicago": 8035,
      "Ġfours": 8036,
      "ĠStud": 8037,
      "Ġfreely": 8038,
      "Ġhelmeted": 8039,
      "Ġsubmarine": 8040,
      "ĠKrispy": 8041,
      "Ġcurbside": 8042,
      "Ġcenterpiece": 8043,
      "Ġoverlook": 8044,
      "Ġgrate": 8045,
      "ORT": 8046,
      "Ġdiscs": 8047,
      "monds": 8048,
      "Ġrearview": 8049,
      "uzzle": 8050,
      "ĠSTAND": 8051,
      "ĠHotel": 8052,
      "Ġoperated": 8053,
      "Ġpleas": 8054,
      "ĠCOUCH": 8055,
      "Ġrepairs": 8056,
      "Ġpineapples": 8057,
      "ĠOUTSIDE": 8058,
      "Ġstreetlights": 8059,
      "ĠMarket": 8060,
      "Ġcottage": 8061,
      "Ġroasting": 8062,
      "Ġgoofy": 8063,
      "Ġnavigating": 8064,
      "Ġrevealing": 8065,
      "Ġreleasing": 8066,
      "ĠORAN": 8067,
      "Ġparticipating": 8068,
      "Ġinvol": 8069,
      "ĠFedEx": 8070,
      "ĠGolden": 8071,
      "Ġtrophy": 8072,
      "Ġscrambled": 8073,
      "Ġdemol": 8074,
      "ĠCorner": 8075,
      "ĠDinner": 8076,
      "waii": 8077,
      "Ġswiftly": 8078,
      "cellaneous": 8079,
      "Ġlifeguard": 8080,
      "OC": 8081,
      "ailer": 8082,
      "fri": 8083,
      "ho": 8084,
      "pace": 8085,
      "ued": 8086,
      "Ġaer": 8087,
      "Ġwants": 8088,
      "held": 8089,
      "Ġpra": 8090,
      "Ġpac": 8091,
      "atively": 8092,
      "Ġlast": 8093,
      "organ": 8094,
      "rig": 8095,
      "Ġthink": 8096,
      "Ġcoal": 8097,
      "Ġbeaks": 8098,
      "ader": 8099,
      "Ġplac": 8100,
      "Ġparlor": 8101,
      "Ġyield": 8102,
      "Ġyaw": 8103,
      "Ġflipped": 8104,
      "ĠSa": 8105,
      "Ġrapid": 8106,
      "Ġbedside": 8107,
      "Ġplayful": 8108,
      "Ġforrest": 8109,
      "umber": 8110,
      "ĠPe": 8111,
      "Ġseal": 8112,
      "Ġshearing": 8113,
      "Ġalt": 8114,
      "Ġalmonds": 8115,
      "Ġslal": 8116,
      "ĠMic": 8117,
      "ĠCL": 8118,
      "ĠChicago": 8119,
      "agle": 8120,
      "Ġbanners": 8121,
      "ĠOffice": 8122,
      "Ġkiteboard": 8123,
      "lydes": 8124,
      "uffs": 8125,
      "ĠLi": 8126,
      "Ġsunflower": 8127,
      "venile": 8128,
      "Ġcoral": 8129,
      "ĠDucks": 8130,
      "Ġcanned": 8131,
      "ĠRest": 8132,
      "ĠRem": 8133,
      "ĠVol": 8134,
      "Ġpancake": 8135,
      "Ġlooked": 8136,
      "Ġsurrounds": 8137,
      "Ġmats": 8138,
      "ĠYARD": 8139,
      "Ġamen": 8140,
      "Ġfacial": 8141,
      "ĠUr": 8142,
      "Ġquiche": 8143,
      "Ġwedges": 8144,
      "Ġbloom": 8145,
      "ĠBox": 8146,
      "Ġneath": 8147,
      "AYING": 8148,
      "Ġvisor": 8149,
      "Ġseper": 8150,
      "Ġ11": 8151,
      "Ġabstract": 8152,
      "Ġcelebratory": 8153,
      "Ġexha": 8154,
      "Ġbuliding": 8155,
      "Ġindicate": 8156,
      "Ġbooths": 8157,
      "AMP": 8158,
      "NTAIN": 8159,
      "Ġstroll": 8160,
      "ĠROAD": 8161,
      "Ġsweets": 8162,
      "Ġmelon": 8163,
      "ĠWATCHING": 8164,
      "Ġpeaceful": 8165,
      "ebox": 8166,
      "Ġfolks": 8167,
      "Ġdetails": 8168,
      "Ġbison": 8169,
      "Ġnails": 8170,
      "Ġbarbeque": 8171,
      "ĠSURFING": 8172,
      "Ġmessing": 8173,
      "Ġrenovation": 8174,
      "Ġretriever": 8175,
      "Ġdiscussion": 8176,
      "Ġoversized": 8177,
      "Ġdrops": 8178,
      "Ġgestures": 8179,
      "Ġhurdle": 8180,
      "Ġseasoning": 8181,
      "ĠTeenag": 8182,
      "Ġvarying": 8183,
      "Ġenthusiast": 8184,
      "Ġwindmill": 8185,
      "Ġtwenty": 8186,
      "Ġstovetop": 8187,
      "Ġyawning": 8188,
      "DR": 8189,
      "DY": 8190,
      "SES": 8191,
      "creen": 8192,
      "for": 8193,
      "gle": 8194,
      "long": 8195,
      "water": 8196,
      "zer": 8197,
      "Ġu": 8198,
      "Ġspen": 8199,
      "Ġpub": 8200,
      "Ġcel": 8201,
      "Ġank": 8202,
      "ison": 8203,
      "Ġmp": 8204,
      "Ġdre": 8205,
      "raction": 8206,
      "las": 8207,
      "ĠTRE": 8208,
      "irie": 8209,
      "Ġnative": 8210,
      "Ġwhip": 8211,
      "Ġbearing": 8212,
      "Ġpeoples": 8213,
      "Ġfrow": 8214,
      "Ġfixes": 8215,
      "Ġchihuahua": 8216,
      "Ġchunks": 8217,
      "Ġvel": 8218,
      "Ġuphill": 8219,
      "Ġfloored": 8220,
      "ĠSty": 8221,
      "ulture": 8222,
      "Ġsnowman": 8223,
      "Ġkitchenette": 8224,
      "Ġconvert": 8225,
      "ĠThomas": 8226,
      "ĠBunch": 8227,
      "Ġintense": 8228,
      "ĠWOR": 8229,
      "ĠCELL": 8230,
      "Ġbrownie": 8231,
      "Ġgoatee": 8232,
      "Ġcheek": 8233,
      "Ġsunrise": 8234,
      "ickey": 8235,
      "vender": 8236,
      "Ġpromin": 8237,
      "ĠHY": 8238,
      "Ġremain": 8239,
      "shot": 8240,
      "ship": 8241,
      "Ġcontrolling": 8242,
      "Ġmark": 8243,
      "tended": 8244,
      "Ġmonk": 8245,
      "Ġraincoat": 8246,
      "ĠNe": 8247,
      "weed": 8248,
      "Ġmatches": 8249,
      "ATION": 8250,
      "Ġplatforms": 8251,
      "Ġdirects": 8252,
      "osaur": 8253,
      "Ġpackaging": 8254,
      "Ġflatbread": 8255,
      "Ġlocations": 8256,
      "scale": 8257,
      "Ġmason": 8258,
      "ETTING": 8259,
      "avids": 8260,
      "Ġtoddlers": 8261,
      "Ġrepres": 8262,
      "Ġbits": 8263,
      "ĠPictures": 8264,
      "Ġsaddled": 8265,
      "Ġpinned": 8266,
      "Ġaprons": 8267,
      "Ġpopular": 8268,
      "ĠIndividual": 8269,
      "Ġrecei": 8270,
      "Ġburned": 8271,
      "Ġactivity": 8272,
      "Ġrepairing": 8273,
      "Ġseasoned": 8274,
      "Ġattend": 8275,
      "ĠGROUND": 8276,
      "ĠNokia": 8277,
      "Ġparasols": 8278,
      "Ġpilots": 8279,
      "ĠCHILDREN": 8280,
      "Ġcontempl": 8281,
      "Ġcroissants": 8282,
      "Ġdiagonal": 8283,
      "Ġbarricade": 8284,
      "Ġwelcome": 8285,
      "Ġvessel": 8286,
      "Ġpudding": 8287,
      "Ġcoconut": 8288,
      "ĠUmbrellas": 8289,
      "Ġrooftop": 8290,
      "Ġpreforming": 8291,
      "Ġhorizontal": 8292,
      "ĠGUY": 8293,
      "avidson": 8294,
      "das": 8295,
      "wag": 8296,
      "Ġ$": 8297,
      "Ġtightly": 8298,
      "Ġwestern": 8299,
      "Ġcred": 8300,
      "Ġdolly": 8301,
      "Ġgummy": 8302,
      "Ġtol": 8303,
      "unt": 8304,
      "ĠTime": 8305,
      "ĠTower": 8306,
      "Ġmantel": 8307,
      "allows": 8308,
      "elt": 8309,
      "uttered": 8310,
      "Ġwhine": 8311,
      "Ġcob": 8312,
      "Ġcos": 8313,
      "Ġroped": 8314,
      "Ġbored": 8315,
      "Ġpars": 8316,
      "Ġlace": 8317,
      "Ġlazy": 8318,
      "ĠSep": 8319,
      "ĠSpan": 8320,
      "stop": 8321,
      "Ġgiven": 8322,
      "ieval": 8323,
      "ĠPat": 8324,
      "Ġdisp": 8325,
      "Ġglassware": 8326,
      "ĠCUT": 8327,
      "Ġscore": 8328,
      "Ġhandler": 8329,
      "Ġhandling": 8330,
      "Ġoffers": 8331,
      "ĠLunch": 8332,
      "ĠLADY": 8333,
      "ĠLAYING": 8334,
      "Ġbrocc": 8335,
      "Ġunp": 8336,
      "dering": 8337,
      "ĠDun": 8338,
      "aki": 8339,
      "vish": 8340,
      "Ġpatient": 8341,
      "Ġforehand": 8342,
      "Ġplanted": 8343,
      "ĠRes": 8344,
      "Ġrescue": 8345,
      "Ġattraction": 8346,
      "ĠEvery": 8347,
      "Ġtoothp": 8348,
      "Ġhairdryer": 8349,
      "Ġedges": 8350,
      "Ġtanks": 8351,
      "Ġarranging": 8352,
      "Ġpointy": 8353,
      "Ġmasks": 8354,
      "ĠBoxes": 8355,
      "ĠBoston": 8356,
      "Ġcrash": 8357,
      "Ġhamster": 8358,
      "brant": 8359,
      "ĠJo": 8360,
      "Ġdollar": 8361,
      "Ġjuvenile": 8362,
      "ĠShel": 8363,
      "Ġruler": 8364,
      "Ġ18": 8365,
      "ĠCola": 8366,
      "Ġcelebrate": 8367,
      "ĠBenches": 8368,
      "Ġchilds": 8369,
      "Ġdumpster": 8370,
      "Ġshrub": 8371,
      "Ġdenim": 8372,
      "Ġsprayed": 8373,
      "Ġcruising": 8374,
      "Ġworkspace": 8375,
      "Ġgranola": 8376,
      "Ġbundt": 8377,
      "Ġsneaker": 8378,
      "Ġneedles": 8379,
      "ĠSIGNS": 8380,
      "Ġcockpit": 8381,
      "Ġreligious": 8382,
      "Ġcongratul": 8383,
      "Ġtusked": 8384,
      "ĠElectric": 8385,
      "Ġera": 8386,
      "ĠPasta": 8387,
      "Ġluxury": 8388,
      "Ġwonderful": 8389,
      "Ġgnar": 8390,
      "works": 8391,
      "ĠDoughnuts": 8392,
      "ĠSuitcases": 8393,
      "cisco": 8394,
      "Ġskeleton": 8395,
      "Ġlicense": 8396,
      "ĠTREES": 8397,
      "Ġfrowning": 8398,
      "Ġconvertible": 8399,
      "'re": 8400,
      "GG": 8401,
      "NING": 8402,
      "RA": 8403,
      "SING": 8404,
      "Ġamp": 8405,
      "inted": 8406,
      "Ġtipped": 8407,
      "Ġocc": 8408,
      "itol": 8409,
      "Ġpins": 8410,
      "Ġcyl": 8411,
      "attended": 8412,
      "Ġmm": 8413,
      "Ġhugs": 8414,
      "Ġgalley": 8415,
      "Ġstro": 8416,
      "elines": 8417,
      "Ġdoily": 8418,
      "vern": 8419,
      "Ġbound": 8420,
      "Ġlavender": 8421,
      "Ġchick": 8422,
      "ander": 8423,
      "ami": 8424,
      "Ġvia": 8425,
      "ĠSamsung": 8426,
      "igns": 8427,
      "story": 8428,
      "stairs": 8429,
      "ential": 8430,
      "ĠMa": 8431,
      "ĠWall": 8432,
      "Ġscar": 8433,
      "Ġtren": 8434,
      "Ġswitch": 8435,
      "Ġflour": 8436,
      "Ġbows": 8437,
      "Ġeachother": 8438,
      "Ġdives": 8439,
      "Ġfilming": 8440,
      "Ġtriangular": 8441,
      "Ġsales": 8442,
      "acing": 8443,
      "Ġemo": 8444,
      "ĠDess": 8445,
      "Ġdinosaur": 8446,
      "ometer": 8447,
      "Ġbark": 8448,
      "Ġpurses": 8449,
      "ĠNine": 8450,
      "ĠVASE": 8451,
      "Ġhalfpipe": 8452,
      "Ġbetter": 8453,
      "ĠStation": 8454,
      "Ġphotographing": 8455,
      "Ġstately": 8456,
      "Ġwildflowers": 8457,
      "ĠKEP": 8458,
      "Ġconcer": 8459,
      "Ġarmchair": 8460,
      "Ġswimmers": 8461,
      "ETS": 8462,
      "Ġcrooked": 8463,
      "iffel": 8464,
      "Ġcostumed": 8465,
      "Ġleafs": 8466,
      "ĠKitty": 8467,
      "Ġparasailer": 8468,
      "Ġangel": 8469,
      "Ġicebox": 8470,
      "ĠSHEEP": 8471,
      "Ġbundles": 8472,
      "Ġawait": 8473,
      "Ġparachutes": 8474,
      "Ġadorn": 8475,
      "Ġpeanuts": 8476,
      "Ġknitting": 8477,
      "Ġmovies": 8478,
      "Ġbadm": 8479,
      "Ġminutes": 8480,
      "ĠUSA": 8481,
      "Ġnowhere": 8482,
      "ĠCheese": 8483,
      "ĠHawaii": 8484,
      "Ġdefensive": 8485,
      "Ġautomobiles": 8486,
      "Ġsocializing": 8487,
      "Ġsymbols": 8488,
      "ĠConstruction": 8489,
      "Ġcrochet": 8490,
      "Ġbrowsing": 8491,
      "CTION": 8492,
      "Ġferris": 8493,
      "ĠHarley": 8494,
      "Ġdrums": 8495,
      "Ġmouses": 8496,
      "Ġduffel": 8497,
      "ĠOrn": 8498,
      "Ġspanning": 8499,
      "ĠMotorcyclists": 8500,
      "ĠANIMALS": 8501,
      "ĠCOLOR": 8502,
      "Ġsilhouetted": 8503,
      "ĠFrancisco": 8504,
      "Ġnormal": 8505,
      "Ġslalom": 8506,
      "DRANT": 8507,
      "Ġvelvet": 8508,
      "ĠSpanish": 8509,
      "ĠKEPT": 8510,
      "gund": 8511,
      "iel": 8512,
      "izz": 8513,
      "Ġtells": 8514,
      "Ġtesting": 8515,
      "Ġsiamese": 8516,
      "Ġpeop": 8517,
      "rob": 8518,
      "Ġanten": 8519,
      "Ġhoo": 8520,
      "Ġtoll": 8521,
      "Ġlinger": 8522,
      "Ġstor": 8523,
      "rack": 8524,
      "ĠTALL": 8525,
      "asy": 8526,
      "Ġwhom": 8527,
      "uss": 8528,
      "Ġripped": 8529,
      "Ġlavish": 8530,
      "Ġgrows": 8531,
      "Ġgraf": 8532,
      "Ġchoc": 8533,
      "Ġbattle": 8534,
      "Ġflush": 8535,
      "ĠSeat": 8536,
      "ĠSchool": 8537,
      "igned": 8538,
      "Ġrared": 8539,
      "Ġwaking": 8540,
      "ĠBM": 8541,
      "ously": 8542,
      "ĠMer": 8543,
      "ĠMiddle": 8544,
      "kswag": 8545,
      "ĠCent": 8546,
      "ĠFew": 8547,
      "Ġhandmade": 8548,
      "Ġhandstand": 8549,
      "lesc": 8550,
      "Ġsoil": 8551,
      "Ġsodas": 8552,
      "ifier": 8553,
      "Ġheadset": 8554,
      "ĠLine": 8555,
      "Ġarches": 8556,
      "ĠHolly": 8557,
      "Ġracers": 8558,
      "fth": 8559,
      "Ġcannot": 8560,
      "Ġnumbered": 8561,
      "ĠVW": 8562,
      "ĠEl": 8563,
      "Ġexe": 8564,
      "Ġcleaner": 8565,
      "LES": 8566,
      "Ġpenny": 8567,
      "Ġbasement": 8568,
      "Ġlaps": 8569,
      "rung": 8570,
      "Ġfacade": 8571,
      "ĠKite": 8572,
      "Ġwraps": 8573,
      "Ġmessages": 8574,
      "Ġrugby": 8575,
      "Ġmisty": 8576,
      "Ġmiscellaneous": 8577,
      "ĠPlanes": 8578,
      "Ġmedieval": 8579,
      "Ġrub": 8580,
      "Ġprim": 8581,
      "Ġstarring": 8582,
      "ĠGuys": 8583,
      "Ġtransported": 8584,
      "Ġauditor": 8585,
      "ĠWHILE": 8586,
      "Ġburgund": 8587,
      "ADE": 8588,
      "Ġguards": 8589,
      "ĠPARKING": 8590,
      "Ġreceiving": 8591,
      "ĠCOUNT": 8592,
      "Ġtripod": 8593,
      "ĠWINE": 8594,
      "Ġmannequins": 8595,
      "Ġmarshm": 8596,
      "ĠTrucks": 8597,
      "ĠMOUNTAIN": 8598,
      "ĠLAPT": 8599,
      "Ġluxurious": 8600,
      "Ġincred": 8601,
      "Ġsampling": 8602,
      "iversity": 8603,
      "Ġsearching": 8604,
      "Ġdingy": 8605,
      "rabic": 8606,
      "Ġloveseat": 8607,
      "ĠVictorian": 8608,
      "Ġgigantic": 8609,
      "Ġsprawled": 8610,
      "Ġdemolished": 8611,
      "Ġprairie": 8612,
      "organized": 8613,
      "lydesdale": 8614,
      "Ġamenities": 8615,
      "Ġauditorium": 8616,
      "Ġburgundy": 8617,
      "LY": 8618,
      "No": 8619,
      "au": 8620,
      "ailed": 8621,
      "dar": 8622,
      "iing": 8623,
      "with": 8624,
      "yer": 8625,
      "Ġtips": 8626,
      "ĠAction": 8627,
      "Ġwades": 8628,
      "Ġonward": 8629,
      "Ġdated": 8630,
      "Ġtots": 8631,
      "ĠTree": 8632,
      "rio": 8633,
      "Ġbeams": 8634,
      "Ġskim": 8635,
      "Ġren": 8636,
      "Ġreco": 8637,
      "Ġwomans": 8638,
      "Ġgras": 8639,
      "Ġchoo": 8640,
      "Ġupscale": 8641,
      "ĠPots": 8642,
      "Ġoverview": 8643,
      "Ġbento": 8644,
      "Ġcompon": 8645,
      "Ġmens": 8646,
      "Ġalways": 8647,
      "Ġslat": 8648,
      "ĠFord": 8649,
      "Ġtaco": 8650,
      "Ġhandrail": 8651,
      "agna": 8652,
      "Ġbanks": 8653,
      "Ġdiff": 8654,
      "Ġenvel": 8655,
      "Ġhilltop": 8656,
      "Ġchew": 8657,
      "Ġstationed": 8658,
      "Ġaddress": 8659,
      "Ġcontin": 8660,
      "Ġknight": 8661,
      "ĠDOU": 8662,
      "Ġbreaks": 8663,
      "Ġdiners": 8664,
      "Ġplanters": 8665,
      "ĠRain": 8666,
      "Ġpecking": 8667,
      "Ġhost": 8668,
      "Ġspeckled": 8669,
      "bbled": 8670,
      "Ġsailors": 8671,
      "Ġflys": 8672,
      "Ġglobe": 8673,
      "Ġquar": 8674,
      "screen": 8675,
      "Ġcracker": 8676,
      "Ġrooster": 8677,
      "ESS": 8678,
      "Ġcrop": 8679,
      "Ġterrier": 8680,
      "Ġfighters": 8681,
      "Ġstradd": 8682,
      "Ġtwelve": 8683,
      "urfing": 8684,
      "Ġjean": 8685,
      "Ġcasually": 8686,
      "Ġlids": 8687,
      "Ġmedal": 8688,
      "Ġpresident": 8689,
      "Ġcharter": 8690,
      "Ġadjust": 8691,
      "ĠCoffee": 8692,
      "Ġpetted": 8693,
      "Ġobserves": 8694,
      "Ġmattresses": 8695,
      "ptions": 8696,
      "Ġlimbs": 8697,
      "Ġprotect": 8698,
      "Ġdispens": 8699,
      "Ġobstacles": 8700,
      "Ġordering": 8701,
      "Ġfestive": 8702,
      "Ġdetour": 8703,
      "Ġclustered": 8704,
      "Ġostriches": 8705,
      "Ġdonkeys": 8706,
      "Ġgrasslands": 8707,
      "Ġmember": 8708,
      "Ġtones": 8709,
      "ĠiPod": 8710,
      "Ġaiming": 8711,
      "Ġsidelines": 8712,
      "Ġviol": 8713,
      "Ġvibrant": 8714,
      "Ġmissed": 8715,
      "ĠDisplay": 8716,
      "Ġpurchase": 8717,
      "Ġnibbling": 8718,
      "Ġannoun": 8719,
      "ĠDirty": 8720,
      "Ġprofile": 8721,
      "ĠShirtless": 8722,
      "ĠQueen": 8723,
      "Ġcredit": 8724,
      "ĠDunkin": 8725,
      "ĠShelves": 8726,
      "KES": 8727,
      "TER": 8728,
      "UIT": 8729,
      "ex": 8730,
      "eing": 8731,
      "eding": 8732,
      "gons": 8733,
      "kward": 8734,
      "vice": 8735,
      "west": 8736,
      "yon": 8737,
      "Ġarid": 8738,
      "Ġtater": 8739,
      "Ġslo": 8740,
      "Ġsings": 8741,
      "Ġsomebody": 8742,
      "heye": 8743,
      "Ġpuffy": 8744,
      "Ġmunching": 8745,
      "Ġhig": 8746,
      "Ġdw": 8747,
      "Ġditch": 8748,
      "Ġgum": 8749,
      "unction": 8750,
      "ĠTop": 8751,
      "Ġmanual": 8752,
      "oped": 8753,
      "ooh": 8754,
      "hern": 8755,
      "Ġskew": 8756,
      "Ġeffic": 8757,
      "Ġroyal": 8758,
      "Ġdoc": 8759,
      "Ġribs": 8760,
      "antly": 8761,
      "Ġraz": 8762,
      "stered": 8763,
      "Ġmotoc": 8764,
      "Ġsele": 8765,
      "Ġeatery": 8766,
      "Ġwagons": 8767,
      "Ġconcept": 8768,
      "ĠBoth": 8769,
      "ĠBUN": 8770,
      "Ġintensely": 8771,
      "ĠCOR": 8772,
      "ĠCUP": 8773,
      "ĠFULL": 8774,
      "Ġscaff": 8775,
      "Ġswirl": 8776,
      "Ġdiet": 8777,
      "ressed": 8778,
      "acuzz": 8779,
      "Ġhatch": 8780,
      "Ġguides": 8781,
      "Ġlooms": 8782,
      "Ġadding": 8783,
      "Ġembed": 8784,
      "ĠDown": 8785,
      "ĠHis": 8786,
      "ĠHIM": 8787,
      "tened": 8788,
      "Ġpatches": 8789,
      "close": 8790,
      "Ġbooze": 8791,
      "Ġordered": 8792,
      "ĠNice": 8793,
      "blem": 8794,
      "Ġfeather": 8795,
      "capped": 8796,
      "Ġstairwell": 8797,
      "ROSS": 8798,
      "Ġfav": 8799,
      "OWERS": 8800,
      "Ġseaweed": 8801,
      "Ġcircles": 8802,
      "Ġnaps": 8803,
      "Ġiphone": 8804,
      "Ġvisiting": 8805,
      "Ġsprinkle": 8806,
      "Ġwaterskiing": 8807,
      "Ġcelebrates": 8808,
      "Ġawkward": 8809,
      "Ġpetals": 8810,
      "ĠToddler": 8811,
      "ĠOnly": 8812,
      "Ġillustr": 8813,
      "Ġcliffs": 8814,
      "Ġgazebo": 8815,
      "Ġshutters": 8816,
      "Ġmelting": 8817,
      "Ġarrives": 8818,
      "ĠTele": 8819,
      "ĠFreshly": 8820,
      "Ġalcoholic": 8821,
      "ĠSox": 8822,
      "Ġinspects": 8823,
      "Ġpigs": 8824,
      "Ġsatell": 8825,
      "ĠSilhou": 8826,
      "foil": 8827,
      "Ġwoolly": 8828,
      "Ġcentury": 8829,
      "dressed": 8830,
      "ulent": 8831,
      "hydrant": 8832,
      "ĠCupcakes": 8833,
      "ĠDecorative": 8834,
      "Ġexercise": 8835,
      "ĠALONG": 8836,
      "Ġwildebeest": 8837,
      "Ġteacher": 8838,
      "Ġtechnology": 8839,
      "ĠMcDonald": 8840,
      "ĠHYDRANT": 8841,
      "Ġtoliet": 8842,
      "Ġparsley": 8843,
      "ĠSepia": 8844,
      "Ġconcerned": 8845,
      "Ġbadminton": 8846,
      "acuzzi": 8847,
      "30": 8848,
      "AIL": 8849,
      "HIND": 8850,
      "UST": 8851,
      "WALK": 8852,
      "gh": 8853,
      "gien": 8854,
      "lue": 8855,
      "ok": 8856,
      "posed": 8857,
      "rd": 8858,
      "ucc": 8859,
      "vard": 8860,
      "ĠtHERE": 8861,
      "Ġsen": 8862,
      "Ġsipping": 8863,
      "ĠAD": 8864,
      "Ġprist": 8865,
      "Ġinn": 8866,
      "rom": 8867,
      "ism": 8868,
      "Ġwitha": 8869,
      "Ġdude": 8870,
      "Ġdalmatian": 8871,
      "Ġgerman": 8872,
      "Ġgothic": 8873,
      "Ġstab": 8874,
      "rad": 8875,
      "rapped": 8876,
      "esus": 8877,
      "ĠTom": 8878,
      "Ġmanic": 8879,
      "Ġcoca": 8880,
      "Ġbeagle": 8881,
      "Ġkh": 8882,
      "ĠTheir": 8883,
      "Ġholing": 8884,
      "Ġshield": 8885,
      "Ġlaunching": 8886,
      "Ġyak": 8887,
      "Ġgrains": 8888,
      "Ġval": 8889,
      "Ġsnake": 8890,
      "Ġbubbles": 8891,
      "Ġpockets": 8892,
      "ief": 8893,
      "ĠPen": 8894,
      "ĠPort": 8895,
      "Ġsecl": 8896,
      "rang": 8897,
      "Ġoverfl": 8898,
      "Ġdesolate": 8899,
      "ĠBike": 8900,
      "Ġslats": 8901,
      "ĠMA": 8902,
      "ĠMouse": 8903,
      "ppers": 8904,
      "ĠFrance": 8905,
      "ĠFOUR": 8906,
      "Ġtale": 8907,
      "Ġspilled": 8908,
      "Ġfireworks": 8909,
      "Ġdips": 8910,
      "Ġcheer": 8911,
      "ipher": 8912,
      "Ġsloped": 8913,
      "Ġunpack": 8914,
      "Ġunident": 8915,
      "Ġstocking": 8916,
      "RESS": 8917,
      "ĠDist": 8918,
      "ĠHouse": 8919,
      "ĠTHEM": 8920,
      "Ġperipher": 8921,
      "Ġages": 8922,
      "pect": 8923,
      "Ġhomeless": 8924,
      "Ġallow": 8925,
      "uded": 8926,
      "Ġriverbank": 8927,
      "Ġrestaurants": 8928,
      "Ġpoll": 8929,
      "ĠRd": 8930,
      "ĠRock": 8931,
      "Ġrains": 8932,
      "ĠNot": 8933,
      "ĠVases": 8934,
      "Ġpanels": 8935,
      "ĠEN": 8936,
      "ĠState": 8937,
      "Ġpicket": 8938,
      "Ġexpla": 8939,
      "Ġspect": 8940,
      "mingly": 8941,
      "Ġplacemat": 8942,
      "Ġcreamy": 8943,
      "Ġblenders": 8944,
      "Ġcrashes": 8945,
      "Ġcrashed": 8946,
      "Ġdelic": 8947,
      "ORS": 8948,
      "Ġutil": 8949,
      "Ġinterview": 8950,
      "Ġdiscarded": 8951,
      "Ġsteaming": 8952,
      "ICK": 8953,
      "Ġfocal": 8954,
      "ĠBEHIND": 8955,
      "ĠBusiness": 8956,
      "ĠREF": 8957,
      "Ġbaker": 8958,
      "ĠUniform": 8959,
      "Ġcombined": 8960,
      "Ġtinfoil": 8961,
      "Ġstrolling": 8962,
      "Ġshakes": 8963,
      "Ġinfield": 8964,
      "Ġlobster": 8965,
      "Ġkeeping": 8966,
      "Ġmajestic": 8967,
      "Ġseaside": 8968,
      "Ġtissues": 8969,
      "orabil": 8970,
      "Ġautomatic": 8971,
      "ĠPIE": 8972,
      "Ġbillboards": 8973,
      "Ġyouths": 8974,
      "ĠCLOSE": 8975,
      "Ġfitted": 8976,
      "Ġmemorabil": 8977,
      "ĠELEPHANTS": 8978,
      "Ġtemple": 8979,
      "Ġpalace": 8980,
      "Ġperfectly": 8981,
      "Ġboulder": 8982,
      "Ġbushels": 8983,
      "Ġresemble": 8984,
      "ĠAPPLE": 8985,
      "Ġplums": 8986,
      "ĠSLOPE": 8987,
      "Ġetc": 8988,
      "Ġpanoramic": 8989,
      "Ġlandscaping": 8990,
      "Ġproudly": 8991,
      "Ġdeparting": 8992,
      "Ġivy": 8993,
      "Ġtilting": 8994,
      "Ġprotruding": 8995,
      "Ġabundance": 8996,
      "Ġplacid": 8997,
      "Ġaltitude": 8998,
      "Ġreceipt": 8999,
      "ĠHawaiian": 9000,
      "ĠBMW": 9001,
      "Ġembedded": 9002,
      "Ġmemorabilia": 9003,
      "aled": 9004,
      "away": 9005,
      "bla": 9006,
      "ecker": 9007,
      "hor": 9008,
      "mit": 9009,
      "ointed": 9010,
      "inis": 9011,
      "Ġsong": 9012,
      "Ġbris": 9013,
      "ĠAS": 9014,
      "ĠAth": 9015,
      "era": 9016,
      "Ġinfront": 9017,
      "arat": 9018,
      "Ġdate": 9019,
      "Ġgir": 9020,
      "Ġisn": 9021,
      "ĠTown": 9022,
      "ĠTran": 9023,
      "ĠTUB": 9024,
      "ashed": 9025,
      "opened": 9026,
      "Ġnecess": 9027,
      "usband": 9028,
      "igan": 9029,
      "Ġbeets": 9030,
      "Ġskill": 9031,
      "Ġec": 9032,
      "Ġreigns": 9033,
      "Ġshipping": 9034,
      "Ġtopless": 9035,
      "Ġchip": 9036,
      "Ġchases": 9037,
      "Ġflats": 9038,
      "Ġoutlet": 9039,
      "nished": 9040,
      "ainted": 9041,
      "Ġbuild": 9042,
      "Ġjuggling": 9043,
      "ĠPac": 9044,
      "ĠPRO": 9045,
      "ĠPASS": 9046,
      "Ġheating": 9047,
      "ĠBook": 9048,
      "Ġdisg": 9049,
      "ubby": 9050,
      "Ġsheared": 9051,
      "ĠMost": 9052,
      "ĠWin": 9053,
      "Ġrushing": 9054,
      "ĠCell": 9055,
      "ĠCont": 9056,
      "ĠFans": 9057,
      "ĠFEN": 9058,
      "ĠFancy": 9059,
      "Ġhandheld": 9060,
      "Ġmoved": 9061,
      "Ġoffering": 9062,
      "Ġapparent": 9063,
      "Ġapparat": 9064,
      "ourt": 9065,
      "ĠTHRO": 9066,
      "Ġclump": 9067,
      "Ġuneaten": 9068,
      "Ġunattended": 9069,
      "Ġloads": 9070,
      "Ġempt": 9071,
      "Ġpotty": 9072,
      "Ġjetliners": 9073,
      "ools": 9074,
      "cedes": 9075,
      "Ġord": 9076,
      "ITING": 9077,
      "ĠEiffel": 9078,
      "Ġcountries": 9079,
      "Ġsticky": 9080,
      "ĠChurch": 9081,
      "Ġpews": 9082,
      "LED": 9083,
      "Ġcooker": 9084,
      "Ġedible": 9085,
      "Ġenglish": 9086,
      "Ġpawing": 9087,
      "Ġpicturesque": 9088,
      "Ġcreature": 9089,
      "Ġdrawings": 9090,
      "ĠKITE": 9091,
      "osk": 9092,
      "Ġseemingly": 9093,
      "Ġrounds": 9094,
      "Ġartist": 9095,
      "berty": 9096,
      "Ġformations": 9097,
      "ĠPersonal": 9098,
      "Ġantiques": 9099,
      "iously": 9100,
      "Ġextern": 9101,
      "ĠBlond": 9102,
      "plant": 9103,
      "Ġexpos": 9104,
      "Ġguitars": 9105,
      "Ġinstall": 9106,
      "Ġcollie": 9107,
      "Ġangles": 9108,
      "Ġsprays": 9109,
      "Ġbandanna": 9110,
      "Ġgazes": 9111,
      "Ġworkshop": 9112,
      "Ġwarmly": 9113,
      "Ġpops": 9114,
      "Ġserviced": 9115,
      "Ġfaucets": 9116,
      "Ġfriendly": 9117,
      "Ġelbow": 9118,
      "Ġlinked": 9119,
      "Ġnotebooks": 9120,
      "ĠFRUIT": 9121,
      "Ġkeeps": 9122,
      "Ġcollect": 9123,
      "ĠBUSY": 9124,
      "Ġbloody": 9125,
      "Ġcuddled": 9126,
      "ĠHORSES": 9127,
      "Ġsaucers": 9128,
      "ĠCluttered": 9129,
      "Ġmailbox": 9130,
      "Ġcotton": 9131,
      "Ġadmire": 9132,
      "Ġcocktail": 9133,
      "ĠBRIGHT": 9134,
[...]
